{
  "[PAD]": 0,
  "[UNK]": 1,
  "[CLS]": 2,
  "[SEP]": 3,
  "[MASK]": 4,
  "!": 5,
  "\"": 6,
  "'": 7,
  "(": 8,
  ")": 9,
  ",": 10,
  "-": 11,
  ".": 12,
  "0": 13,
  "1": 14,
  "2": 15,
  "3": 16,
  "4": 17,
  "5": 18,
  "6": 19,
  "7": 20,
  "8": 21,
  "9": 22,
  ":": 23,
  ";": 24,
  "?": 25,
  "A": 26,
  "B": 27,
  "C": 28,
  "D": 29,
  "E": 30,
  "F": 31,
  "G": 32,
  "H": 33,
  "I": 34,
  "J": 35,
  "K": 36,
  "L": 37,
  "M": 38,
  "N": 39,
  "O": 40,
  "P": 41,
  "Q": 42,
  "R": 43,
  "S": 44,
  "T": 45,
  "U": 46,
  "V": 47,
  "W": 48,
  "X": 49,
  "Y": 50,
  "Z": 51,
  "[": 52,
  "]": 53,
  "a": 54,
  "b": 55,
  "c": 56,
  "d": 57,
  "e": 58,
  "f": 59,
  "g": 60,
  "h": 61,
  "i": 62,
  "j": 63,
  "k": 64,
  "l": 65,
  "m": 66,
  "n": 67,
  "o": 68,
  "p": 69,
  "q": 70,
  "r": 71,
  "s": 72,
  "t": 73,
  "u": 74,
  "v": 75,
  "w": 76,
  "x": 77,
  "y": 78,
  "z": 79,
  "\u0109": 80,
  "\u010a": 81,
  "\u0120": 82,
  "\u0120t": 83,
  "\u0120a": 84,
  "he": 85,
  "in": 86,
  "\u0120the": 87,
  "er": 88,
  "on": 89,
  "re": 90,
  "\u0120o": 91,
  "at": 92,
  "\u0120s": 93,
  "en": 94,
  "ed": 95,
  "an": 96,
  "is": 97,
  "\u0120c": 98,
  "\u0120w": 99,
  "es": 100,
  "it": 101,
  "or": 102,
  "\u0120of": 103,
  "al": 104,
  "\u0120an": 105,
  "\u0120b": 106,
  "ar": 107,
  "\u0120in": 108,
  "\u0120f": 109,
  "\u0120p": 110,
  "ic": 111,
  "\u0120and": 112,
  "ing": 113,
  "ion": 114,
  "as": 115,
  "ro": 116,
  "\u0120m": 117,
  "\u0120to": 118,
  "\u0120d": 119,
  "le": 120,
  "\u0120A": 121,
  "\u0120h": 122,
  "ent": 123,
  "ou": 124,
  "\u0120T": 125,
  "om": 126,
  "\u0120re": 127,
  "st": 128,
  "ly": 129,
  "ct": 130,
  "\u0120e": 131,
  "\u0120th": 132,
  "\u0120l": 133,
  "il": 134,
  "\u0120C": 135,
  "\u0120n": 136,
  "\u0120S": 137,
  "\u0120B": 138,
  "ol": 139,
  "ve": 140,
  "us": 141,
  "\u0120be": 142,
  "am": 143,
  "ation": 144,
  "ur": 145,
  "\u0120The": 146,
  "ce": 147,
  "id": 148,
  "\u0120is": 149,
  "ch": 150,
  "ad": 151,
  "im": 152,
  "\u0120I": 153,
  "\u0120as": 154,
  "un": 155,
  "\u01201": 156,
  "\u0120for": 157,
  "ot": 158,
  "ut": 159,
  "ver": 160,
  "ig": 161,
  "et": 162,
  "\u0120g": 163,
  "ir": 164,
  "el": 165,
  "\u0120on": 166,
  "\u0120M": 167,
  "ul": 168,
  "ter": 169,
  "ith": 170,
  "\u0120was": 171,
  "ow": 172,
  "ra": 173,
  "\u0120(": 174,
  "\u0120st": 175,
  "\u0120con": 176,
  "her": 177,
  "\u0120with": 178,
  "\u0120P": 179,
  "ist": 180,
  "\u0120al": 181,
  "\u0120by": 182,
  "\u0120that": 183,
  "ay": 184,
  "\u0120H": 185,
  "em": 186,
  "os": 187,
  "\u0120wh": 188,
  "ri": 189,
  "th": 190,
  "um": 191,
  "and": 192,
  "\u0120pro": 193,
  "od": 194,
  "ers": 195,
  "'s": 196,
  "\u0120or": 197,
  "op": 198,
  "\u0120R": 199,
  "\u0120E": 200,
  "\u0120com": 201,
  "\u0120D": 202,
  "\u0120are": 203,
  "\u0120de": 204,
  "\u0120In": 205,
  "ag": 206,
  "\u0120F": 207,
  "est": 208,
  "if": 209,
  "\u0120it": 210,
  "\u0120G": 211,
  "rom": 212,
  "ac": 213,
  "\u0120W": 214,
  "\u0120L": 215,
  "\u0120su": 216,
  "ate": 217,
  "\u0120\"": 218,
  "ain": 219,
  "ies": 220,
  "\u012019": 221,
  "res": 222,
  "ab": 223,
  "\u0120at": 224,
  "\u01202": 225,
  "ity": 226,
  "pe": 227,
  "\u0120ex": 228,
  "\u0120N": 229,
  "\u0120from": 230,
  "oun": 231,
  "\u0120v": 232,
  "\u0120he": 233,
  "se": 234,
  "ud": 235,
  "ive": 236,
  "oc": 237,
  "qu": 238,
  "ment": 239,
  "ant": 240,
  "iv": 241,
  "\u0120se": 242,
  "ich": 243,
  "ort": 244,
  "ld": 245,
  "ess": 246,
  "ical": 247,
  "ian": 248,
  "ial": 249,
  "ore": 250,
  "\u0120O": 251,
  "art": 252,
  "\u0120J": 253,
  "\u0120us": 254,
  "\u0120r": 255,
  "\u0120un": 256,
  "pp": 257,
  "\u0120his": 258,
  "all": 259,
  "pt": 260,
  "ia": 261,
  "igh": 262,
  "ated": 263,
  "ill": 264,
  "00": 265,
  "ard": 266,
  "\u0120which": 267,
  "ew": 268,
  "ere": 269,
  "gh": 270,
  "ber": 271,
  "ction": 272,
  "\u0120ch": 273,
  "ak": 274,
  "ther": 275,
  "\u0120U": 276,
  "ge": 277,
  "ave": 278,
  "ost": 279,
  "end": 280,
  "og": 281,
  "\u0120were": 282,
  "ure": 283,
  "\u0120not": 284,
  "ary": 285,
  "cl": 286,
  "ip": 287,
  "ine": 288,
  "\u0120pl": 289,
  "ast": 290,
  "ish": 291,
  "\u0120le": 292,
  "\u0120comp": 293,
  "ous": 294,
  "per": 295,
  "so": 296,
  "ong": 297,
  "\u0120ar": 298,
  "du": 299,
  "our": 300,
  "ell": 301,
  "ame": 302,
  "\u0120k": 303,
  "rit": 304,
  "\u0120have": 305,
  "ome": 306,
  "av": 307,
  "\u0120K": 308,
  "cc": 309,
  "ans": 310,
  "ect": 311,
  "ition": 312,
  "ight": 313,
  "ord": 314,
  "\u0120sh": 315,
  "\u0120Ch": 316,
  "ire": 317,
  "iz": 318,
  "\u0120cont": 319,
  "ult": 320,
  "up": 321,
  "\u0120int": 322,
  "ide": 323,
  "ub": 324,
  "ear": 325,
  "ff": 326,
  "ry": 327,
  "ap": 328,
  "\u0120has": 329,
  "\u0120also": 330,
  "mer": 331,
  "\u0120ad": 332,
  "ence": 333,
  "ations": 334,
  "\u0120St": 335,
  "der": 336,
  "ib": 337,
  "ust": 338,
  "ally": 339,
  "\u0120had": 340,
  "\u0120whe": 341,
  "\u0120their": 342,
  "ack": 343,
  "ign": 344,
  "\u0120its": 345,
  "ass": 346,
  "pl": 347,
  "),": 348,
  "\u0120ab": 349,
  "\u012020": 350,
  "\u0120part": 351,
  "ue": 352,
  "age": 353,
  "\u0120other": 354,
  "\u0120but": 355,
  "\u0120res": 356,
  "ang": 357,
  "\u0120An": 358,
  "ould": 359,
  "\u0120tr": 360,
  "low": 361,
  "\u0120Th": 362,
  "act": 363,
  "\u0120cl": 364,
  "ater": 365,
  "ok": 366,
  "clud": 367,
  "\u0120Al": 368,
  "\u0120can": 369,
  "fer": 370,
  "are": 371,
  "\u0120y": 372,
  "\u0120wor": 373,
  "\u0120im": 374,
  "ount": 375,
  "ph": 376,
  "vel": 377,
  "\u0120dis": 378,
  "\u0120en": 379,
  "ie": 380,
  "ru": 381,
  "ory": 382,
  "irst": 383,
  "ree": 384,
  "ates": 385,
  "any": 386,
  "\u0120been": 387,
  "erm": 388,
  "\u0120Un": 389,
  "tern": 390,
  "\u0120this": 391,
  "over": 392,
  "ions": 393,
  "ance": 394,
  "\u0120includ": 395,
  "orm": 396,
  "\u0120one": 397,
  "ric": 398,
  "\u0120bec": 399,
  "\u0120comm": 400,
  "out": 401,
  "ace": 402,
  "con": 403,
  "\u0120first": 404,
  "\u0120V": 405,
  "own": 406,
  "ime": 407,
  "able": 408,
  "ach": 409,
  "wo": 410,
  "hed": 411,
  "ress": 412,
  "vers": 413,
  "ile": 414,
  "fter": 415,
  "\u0120such": 416,
  "ugh": 417,
  "ke": 418,
  "\u0120used": 419,
  ").": 420,
  "te": 421,
  "port": 422,
  "\u0120It": 423,
  "\u0120te": 424,
  "ound": 425,
  "\u0120ro": 426,
  "land": 427,
  "und": 428,
  "ced": 429,
  "ces": 430,
  "ens": 431,
  "\u0120pre": 432,
  "\u0120Ar": 433,
  "\u0120who": 434,
  "ep": 435,
  "\u0120sy": 436,
  "\u0120per": 437,
  "ice": 438,
  "\u0120spe": 439,
  "ough": 440,
  "\u0120cons": 441,
  "erv": 442,
  "lic": 443,
  "\u0120all": 444,
  "ren": 445,
  "uring": 446,
  "\u0120ne": 447,
  "ose": 448,
  "\u0120des": 449,
  "\u0120form": 450,
  "\u0120ag": 451,
  "ors": 452,
  "ational": 453,
  "ari": 454,
  "\u0120200": 455,
  "\u0120cent": 456,
  "\u0120sp": 457,
  "ron": 458,
  "les": 459,
  "\u0120they": 460,
  "ov": 461,
  "\u0120more": 462,
  "ase": 463,
  "we": 464,
  "\u0120ev": 465,
  "\u0120He": 466,
  "\u0120sc": 467,
  "ism": 468,
  "ents": 469,
  "\u0120into": 470,
  "ite": 471,
  "\u0120two": 472,
  "\u0120most": 473,
  "ks": 474,
  "ade": 475,
  "ited": 476,
  "ts": 477,
  "\u0120j": 478,
  "ied": 479,
  "\u0120rec": 480,
  "ular": 481,
  "\u0120201": 482,
  "olog": 483,
  "aw": 484,
  "ative": 485,
  "\u0120ele": 486,
  "\u0120rel": 487,
  "amp": 488,
  "aus": 489,
  "\u0120over": 490,
  "reat": 491,
  "\u0120me": 492,
  "\u0120year": 493,
  "\u012018": 494,
  "\u0120reg": 495,
  "rib": 496,
  "\u0120col": 497,
  "\u0120att": 498,
  "\u0120As": 499,
  "meric": 500,
  "one": 501,
  "ual": 502,
  "\u0120some": 503,
  "oin": 504,
  "ft": 505,
  "ath": 506,
  "rough": 507,
  "ood": 508,
  "\u0120bet": 509,
  "ne": 510,
  "\u0120out": 511,
  "\u0120gro": 512,
  "wn": 513,
  "\u0120num": 514,
  "\u0120than": 515,
  "ased": 516,
  "ted": 517,
  "ics": 518,
  "\u0120after": 519,
  "oth": 520,
  "\u0120app": 521,
  "\u0120am": 522,
  "\u0120produ": 523,
  "ings": 524,
  "\u0120gen": 525,
  "\u0120This": 526,
  "form": 527,
  "\u0120Americ": 528,
  "\u0120sub": 529,
  "ten": 530,
  "ook": 531,
  "red": 532,
  "\u0120kn": 533,
  "iss": 534,
  "ific": 535,
  "ob": 536,
  "ons": 537,
  "\u0120would": 538,
  "\u0120lar": 539,
  "ury": 540,
  "old": 541,
  "ark": 542,
  "\u0120may": 543,
  "\u0120time": 544,
  "stem": 545,
  "\u0120under": 546,
  "ween": 547,
  "\u0120En": 548,
  "\u0120only": 549,
  "\u0120play": 550,
  "gan": 551,
  "ys": 552,
  "\u0120ac": 553,
  "\u0120when": 554,
  "\u0120inter": 555,
  "\u0120so": 556,
  "\u0120ear": 557,
  "\u0120acc": 558,
  "ind": 559,
  "als": 560,
  "ail": 561,
  "\u0120mod": 562,
  "the": 563,
  "ove": 564,
  "\u0120between": 565,
  "\u0120ass": 566,
  "ever": 567,
  "\u0120new": 568,
  "\u0120ph": 569,
  "\u0120ra": 570,
  "ran": 571,
  "\u0120up": 572,
  "\u0120there": 573,
  "li": 574,
  "\u0120spec": 575,
  "\u0120many": 576,
  "\u0120ind": 577,
  "ral": 578,
  "\u0120off": 579,
  "ild": 580,
  "\".": 581,
  "overn": 582,
  "\u0120them": 583,
  "\u0120use": 584,
  "\u0120him": 585,
  "cre": 586,
  "ities": 587,
  "\u0120dif": 588,
  "urn": 589,
  "\u0120pe": 590,
  "\u0120199": 591,
  "\u01203": 592,
  "velop": 593,
  "ram": 594,
  "ince": 595,
  "\u0120Y": 596,
  "\u0120no": 597,
  "\u0120system": 598,
  "\u0120count": 599,
  "\u0120def": 600,
  "\u0120Com": 601,
  "ars": 602,
  "\u0120pr": 603,
  "\u0120trans": 604,
  "\u0120qu": 605,
  "\u0120through": 606,
  "\u0120act": 607,
  "ject": 608,
  "\u0120her": 609,
  "\u0120bl": 610,
  "ution": 611,
  "ines": 612,
  "\u0120Se": 613,
  "ern": 614,
  "\u0120call": 615,
  "ollow": 616,
  "\u0120pos": 617,
  "ward": 618,
  "uc": 619,
  "\u0120Brit": 620,
  "\u0120pres": 621,
  "\u0120where": 622,
  "\u0120we": 623,
  "ond": 624,
  "orn": 625,
  "ating": 626,
  "\u0120pub": 627,
  "\u0120rem": 628,
  "ished": 629,
  "\u0120during": 630,
  "ake": 631,
  "ists": 632,
  "ict": 633,
  "oy": 634,
  "hes": 635,
  "\u0120work": 636,
  "arch": 637,
  "\u0120em": 638,
  "\u0120ob": 639,
  "\u0120supp": 640,
  "\u0120prov": 641,
  "ident": 642,
  "\u0120develop": 643,
  "\u0120Re": 644,
  "\u0120do": 645,
  "\u0120inst": 646,
  "tle": 647,
  "\u0120fil": 648,
  "cess": 649,
  "ug": 650,
  "\u0120known": 651,
  "ivers": 652,
  "\u0120set": 653,
  "ious": 654,
  "\u0120pol": 655,
  "uro": 656,
  "\u0120inv": 657,
  "\u0120met": 658,
  "ays": 659,
  "ause": 660,
  "\",": 661,
  "ures": 662,
  "\u0120man": 663,
  "ower": 664,
  "\u0120li": 665,
  "very": 666,
  "led": 667,
  "\u0120pop": 668,
  "ically": 669,
  "\u0120inf": 670,
  "ments": 671,
  "\u0120mem": 672,
  "hip": 673,
  "\u0120gener": 674,
  "ient": 675,
  "owever": 676,
  "oh": 677,
  "\u0120vari": 678,
  "\u0120found": 679,
  "cept": 680,
  "fore": 681,
  "\u0120these": 682,
  "\u0120tra": 683,
  "\u0120ap": 684,
  "ix": 685,
  "ually": 686,
  "\u0120Con": 687,
  "ton": 688,
  "\u0120about": 689,
  "outh": 690,
  "\u0120govern": 691,
  "\u0120De": 692,
  "\u0120Eng": 693,
  "aj": 694,
  "ized": 695,
  "cted": 696,
  "ah": 697,
  "tain": 698,
  "\u0120years": 699,
  "\u0120char": 700,
  "ible": 701,
  "\u0120New": 702,
  "\u0120follow": 703,
  "\u0120fl": 704,
  "ins": 705,
  "\u0120dist": 706,
  "\u0120co": 707,
  "ium": 708,
  "\u0120exp": 709,
  "\u0120loc": 710,
  "hen": 711,
  "ople": 712,
  "\u0120century": 713,
  "ved": 714,
  "\u0120number": 715,
  "angu": 716,
  "\u0120add": 717,
  "oci": 718,
  "ise": 719,
  "\u0120eff": 720,
  "ered": 721,
  "\u0120American": 722,
  "\u0120On": 723,
  "yp": 724,
  "\u0120including": 725,
  "\u0120made": 726,
  "\u0120rep": 727,
  "\u0120differ": 728,
  "\u0120fe": 729,
  "ctions": 730,
  "inal": 731,
  "lish": 732,
  "\u0120film": 733,
  "\u0120sur": 734,
  "19": 735,
  "ural": 736,
  "\u0120well": 737,
  "orth": 738,
  "\u0120being": 739,
  "\u0120At": 740,
  "\u0120imp": 741,
  "\u0120both": 742,
  "\u0120cre": 743,
  "\u0120For": 744,
  "io": 745,
  "lex": 746,
  "\u0120United": 747,
  "\u0120serv": 748,
  "\u0120called": 749,
  "\u0120writ": 750,
  "\u0120main": 751,
  "\u0120car": 752,
  "\u0120bu": 753,
  "\u0120ext": 754,
  "man": 755,
  "ife": 756,
  "\u0120again": 757,
  "cy": 758,
  "\u0120sign": 759,
  "ature": 760,
  "round": 761,
  "ants": 762,
  "iel": 763,
  "\u0120any": 764,
  "\u0120then": 765,
  "uch": 766,
  "its": 767,
  ".\"": 768,
  "\u0120ent": 769,
  "\u0120Ap": 770,
  "\u0120while": 771,
  "bers": 772,
  "cial": 773,
  "\u0120stud": 774,
  "\u0120hist": 775,
  "imes": 776,
  "\u0120end": 777,
  "\u0120Am": 778,
  "\u0120later": 779,
  "ility": 780,
  "\u0120198": 781,
  "cond": 782,
  "\u0120sim": 783,
  "\u0120Is": 784,
  "\u0120became": 785,
  "ters": 786,
  "\u0120dec": 787,
  "\u01204": 788,
  "\u0120art": 789,
  "\u0120three": 790,
  "\u0120sm": 791,
  "ather": 792,
  "ock": 793,
  "\u0120British": 794,
  "hem": 795,
  "\u0120197": 796,
  "\u0120often": 797,
  "\u0120langu": 798,
  "\u0120Euro": 799,
  "ll": 800,
  "ick": 801,
  "\u0120term": 802,
  "\u0120dep": 803,
  "\u0120early": 804,
  "ians": 805,
  "ros": 806,
  "ract": 807,
  "other": 808,
  "elf": 809,
  "\u0120group": 810,
  "\u0120const": 811,
  "\u0120mon": 812,
  "\u0120ser": 813,
  "ames": 814,
  "\u0120large": 815,
  "\u0120aut": 816,
  "\u0120high": 817,
  "\u0120Le": 818,
  "\u0120air": 819,
  "ork": 820,
  "ily": 821,
  "gest": 822,
  "rist": 823,
  "ision": 824,
  "ck": 825,
  "\u0120Bl": 826,
  "\u0120people": 827,
  "\u0120sever": 828,
  "ages": 829,
  "\u0120.": 830,
  "\u0120desc": 831,
  "ology": 832,
  "\u0120contin": 833,
  "\u0120partic": 834,
  "ting": 835,
  "rop": 836,
  "\u0120Af": 837,
  "ful": 838,
  "\u0120Europe": 839,
  "\u0120Be": 840,
  "\u0120est": 841,
  "\u0120state": 842,
  "\u0120common": 843,
  "lished": 844,
  "ajor": 845,
  "\u0120mus": 846,
  "\u0120dire": 847,
  "\u0120orig": 848,
  "ues": 849,
  "ty": 850,
  "\u0120city": 851,
  "ann": 852,
  "\u0120long": 853,
  "\u0120Col": 854,
  "\u0120appe": 855,
  "\u0120196": 856,
  "ool": 857,
  "apt": 858,
  "\u01205": 859,
  "\u0120world": 860,
  "vent": 861,
  "\u0120Ind": 862,
  "\u0120consid": 863,
  "iversity": 864,
  "\u0120result": 865,
  "\u0120ret": 866,
  "\u0120oper": 867,
  "air": 868,
  "ex": 869,
  "\u0120pers": 870,
  "ield": 871,
  "iew": 872,
  "ax": 873,
  "\u0120Sh": 874,
  "\u0120ant": 875,
  "\u0120could": 876,
  "ger": 877,
  "\u0120lead": 878,
  "\u0120Ad": 879,
  "ined": 880,
  "til": 881,
  "az": 882,
  "uss": 883,
  "\u0120same": 884,
  "ample": 885,
  "\u0120own": 886,
  "osed": 887,
  "ange": 888,
  "\u0120Aust": 889,
  "though": 890,
  "\u0120like": 891,
  "ital": 892,
  "\u0120War": 893,
  "\u0120government": 894,
  "ale": 895,
  "ble": 896,
  "\u0120occ": 897,
  "\u0120min": 898,
  "\u0120Sp": 899,
  "\u0120Christ": 900,
  "lo": 901,
  "\u0120Sc": 902,
  "\u0120States": 903,
  "oman": 904,
  "raph": 905,
  "\u0120war": 906,
  "\u0120small": 907,
  "000": 908,
  "omet": 909,
  "acter": 910,
  "ived": 911,
  "ae": 912,
  "rol": 913,
  "\u0120ed": 914,
  "\u0120before": 915,
  "\u0120will": 916,
  "\u0120she": 917,
  "\u0120second": 918,
  "ired": 919,
  "\u0120different": 920,
  "ank": 921,
  "\u0120,": 922,
  "ared": 923,
  "\u0120fam": 924,
  "\u0120med": 925,
  "\u0120Joh": 926,
  "urch": 927,
  "\u012017": 928,
  "ute": 929,
  "gy": 930,
  "ional": 931,
  "\u0120each": 932,
  "\u0120disc": 933,
  "\u0120design": 934,
  "\u0120several": 935,
  "ives": 936,
  "\u0120major": 937,
  "ene": 938,
  "\u0120bro": 939,
  "\u0120support": 940,
  "chn": 941,
  "els": 942,
  "\u0120bel": 943,
  "\u0120because": 944,
  "\u0120prog": 945,
  "\u0120Ab": 946,
  "\u0120include": 947,
  "ised": 948,
  "\u0120Germ": 949,
  "\u0120example": 950,
  "\u0120arm": 951,
  "ety": 952,
  "\u0120remain": 953,
  "\u0120if": 954,
  "\u0120law": 955,
  "aking": 956,
  "ccess": 957,
  "iod": 958,
  "\u0120hum": 959,
  "\u0120effect": 960,
  "\u0120Pro": 961,
  "\u0120Wor": 962,
  "ording": 963,
  "min": 964,
  "\u0120against": 965,
  "\u0120land": 966,
  "riv": 967,
  "\u0120sch": 968,
  "\u0120However": 969,
  "\u0120There": 970,
  "\u0120since": 971,
  "iver": 972,
  "aid": 973,
  "\u0120John": 974,
  "oint": 975,
  "\u0120commun": 976,
  "\u0120Z": 977,
  "ash": 978,
  "\u0120name": 979,
  "atic": 980,
  "ides": 981,
  "ries": 982,
  "ided": 983,
  "\u0120po": 984,
  "ilit": 985,
  "ices": 986,
  "\u0120str": 987,
  "ning": 988,
  "ird": 989,
  "\u0120trad": 990,
  "\u0120Comm": 991,
  "\u0120incre": 992,
  "\u0120fun": 993,
  "\u0120four": 994,
  "\u0120public": 995,
  "ina": 996,
  "\u0120until": 997,
  "\u0120allow": 998,
  "cent": 999,
  "\u0120requ": 1000,
  "\u0120cult": 1001,
  "ox": 1002,
  "\u0120leg": 1003,
  "\u0120book": 1004,
  "ulation": 1005,
  "\u0120Wh": 1006,
  "\u01206": 1007,
  "\u0120ins": 1008,
  "\u0120det": 1009,
  "\u0120World": 1010,
  "20": 1011,
  "ued": 1012,
  "\u0120English": 1013,
  "ley": 1014,
  "\u0120Cl": 1015,
  "get": 1016,
  "\u0120back": 1017,
  "way": 1018,
  "\u0120ref": 1019,
  "lu": 1020,
  "eral": 1021,
  "\u0120power": 1022,
  "ified": 1023,
  "itions": 1024,
  "ged": 1025,
  "\u0120country": 1026,
  "\u0120organ": 1027,
  "conom": 1028,
  "ven": 1029,
  "yn": 1030,
  "\u0120Ph": 1031,
  "ruct": 1032,
  "\u0120mat": 1033,
  "\u01207": 1034,
  "yl": 1035,
  "\u0120equ": 1036,
  "\u0120import": 1037,
  "mber": 1038,
  "raft": 1039,
  "\u0120though": 1040,
  "arm": 1041,
  "ius": 1042,
  "\u0120cap": 1043,
  "ission": 1044,
  "\u0120success": 1045,
  "\u0120val": 1046,
  "ases": 1047,
  "ience": 1048,
  "\u0120They": 1049,
  "\u0120sing": 1050,
  "\u0120elect": 1051,
  "to": 1052,
  "\u0120process": 1053,
  "son": 1054,
  "\u0120cor": 1055,
  "lect": 1056,
  "\u0120bat": 1057,
  "\u0120University": 1058,
  "\u0120op": 1059,
  "xt": 1060,
  "por": 1061,
  "enn": 1062,
  "ris": 1063,
  "ier": 1064,
  "\u0120poss": 1065,
  "\u0120show": 1066,
  "ternational": 1067,
  "\u0120rele": 1068,
  "\u0120Can": 1069,
  "ner": 1070,
  "inc": 1071,
  "oph": 1072,
  "ason": 1073,
  "ended": 1074,
  "eng": 1075,
  "rad": 1076,
  "\u0120refer": 1077,
  "ring": 1078,
  "\u0120those": 1079,
  "ross": 1080,
  "\u0120These": 1081,
  "ement": 1082,
  "\u0120period": 1083,
  "\u0120based": 1084,
  "\u0120did": 1085,
  "ouse": 1086,
  "\u0120describ": 1087,
  "com": 1088,
  "\u0120conf": 1089,
  "\u0120cur": 1090,
  "\u0120par": 1091,
  "\u0120right": 1092,
  "aim": 1093,
  "oot": 1094,
  "ize": 1095,
  "\u0120program": 1096,
  "\u0120II": 1097,
  "ness": 1098,
  "rodu": 1099,
  "\u0120offic": 1100,
  "pect": 1101,
  "ilar": 1102,
  "\u0120polit": 1103,
  "\u0120person": 1104,
  "ull": 1105,
  "\u0120life": 1106,
  "ript": 1107,
  "\u0120order": 1108,
  "ets": 1109,
  "ently": 1110,
  "ization": 1111,
  "ences": 1112,
  "ration": 1113,
  "resent": 1114,
  "\u0120around": 1115,
  "\u0120div": 1116,
  "\u0120area": 1117,
  "\u0120near": 1118,
  "\u0120Or": 1119,
  "\u0120class": 1120,
  "\u0120Arm": 1121,
  "ane": 1122,
  "\u0120non": 1123,
  "\u0120sl": 1124,
  "\u0120mar": 1125,
  "\u0120language": 1126,
  "\u0120even": 1127,
  "\u0120Car": 1128,
  "\u0120began": 1129,
  "\u0120194": 1130,
  "\u0120direct": 1131,
  "\u0120After": 1132,
  "ody": 1133,
  "dom": 1134,
  "\u0120within": 1135,
  "\u0120estab": 1136,
  "\u0120ke": 1137,
  "aced": 1138,
  "par": 1139,
  "aving": 1140,
  "\u0120using": 1141,
  "\u0120record": 1142,
  "mp": 1143,
  "\u0120techn": 1144,
  "\u0120modern": 1145,
  "\u0120expl": 1146,
  "\u0120death": 1147,
  "\u0120Afric": 1148,
  "\u0120character": 1149,
  "rid": 1150,
  "\u0120belie": 1151,
  "ode": 1152,
  "\u0120lit": 1153,
  "\u0120among": 1154,
  "\u0120typ": 1155,
  "\u0120Alex": 1156,
  "amed": 1157,
  "eg": 1158,
  "\u0120following": 1159,
  "\u0120perform": 1160,
  "\u0120av": 1161,
  "que": 1162,
  "\u0120pass": 1163,
  "\u0120much": 1164,
  "\u0120195": 1165,
  "lands": 1166,
  "\u0120influ": 1167,
  "\u0120Gree": 1168,
  "ories": 1169,
  "\u0120giv": 1170,
  "\u0120exper": 1171,
  "ograph": 1172,
  "\u0120prop": 1173,
  "ec": 1174,
  "\u0120opp": 1175,
  "ober": 1176,
  "gen": 1177,
  "\u012016": 1178,
  "\u0120comput": 1179,
  "\u0120water": 1180,
  "\u0120econom": 1181,
  "\u0120series": 1182,
  "hor": 1183,
  "ially": 1184,
  "\u0120Austral": 1185,
  "\u0120Mar": 1186,
  "tic": 1187,
  "\u0120'": 1188,
  "\u0120appro": 1189,
  "\u0120stand": 1190,
  "\u0120Sch": 1191,
  "\u0120adv": 1192,
  "ony": 1193,
  "epend": 1194,
  "estern": 1195,
  "\u0120team": 1196,
  "\u0120Some": 1197,
  "\u0120South": 1198,
  "ik": 1199,
  "\u0120word": 1200,
  "ological": 1201,
  "\u0120due": 1202,
  "\u0120control": 1203,
  "\u0120mark": 1204,
  "\u0120stat": 1205,
  "ball": 1206,
  "ves": 1207,
  "read": 1208,
  "\u0120resp": 1209,
  "\u0120sol": 1210,
  "\u0120music": 1211,
  "\u0120cour": 1212,
  "ately": 1213,
  "ister": 1214,
  "\u0120considered": 1215,
  "\u012015": 1216,
  "ilitary": 1217,
  "\u0120rest": 1218,
  "\u0120bas": 1219,
  "eb": 1220,
  "\u0120Cent": 1221,
  "ense": 1222,
  "ament": 1223,
  "ids": 1224,
  "ander": 1225,
  "row": 1226,
  "\u0120King": 1227,
  "\u0120North": 1228,
  "\u0120ann": 1229,
  "\u0120still": 1230,
  "\u0120popular": 1231,
  "ior": 1232,
  "itional": 1233,
  "\u0120eng": 1234,
  "\u0120By": 1235,
  "\u0120National": 1236,
  "\u0120along": 1237,
  "\u0120now": 1238,
  "\u0120very": 1239,
  "\u0120es": 1240,
  "ink": 1241,
  "\u0120hand": 1242,
  "ple": 1243,
  "ards": 1244,
  "\u0120fin": 1245,
  "\u0120comple": 1246,
  "\u0120gu": 1247,
  "rench": 1248,
  "craft": 1249,
  "\u0120comb": 1250,
  "de": 1251,
  "\u0120Q": 1252,
  "\u0120dem": 1253,
  "ublic": 1254,
  "\u0120members": 1255,
  "\u0120particular": 1256,
  "iet": 1257,
  "\u0120ter": 1258,
  "\u0120attack": 1259,
  "\u0120similar": 1260,
  "ried": 1261,
  "\u0120histor": 1262,
  "\u0120indu": 1263,
  "\u0120rece": 1264,
  "\u0120tem": 1265,
  "\u0120Ang": 1266,
  "\u0120open": 1267,
  "\u0120species": 1268,
  "\u01208": 1269,
  "\u0120Ag": 1270,
  "\u0120rad": 1271,
  "\u0120represent": 1272,
  "\u0120return": 1273,
  "oss": 1274,
  "ole": 1275,
  "iam": 1276,
  "\u0120rev": 1277,
  "\u0120run": 1278,
  "\u0120fact": 1279,
  "\u0120Bat": 1280,
  "\u0120head": 1281,
  "\u0120bo": 1282,
  "\u0120mov": 1283,
  "ains": 1284,
  "\u0120present": 1285,
  "\u0120Pl": 1286,
  "\u0120vers": 1287,
  "ination": 1288,
  "omen": 1289,
  "\u0120various": 1290,
  "\u0120human": 1291,
  "ator": 1292,
  "une": 1293,
  "\u012010": 1294,
  "\u0120cer": 1295,
  "\u0120said": 1296,
  "\u0120Bar": 1297,
  "ster": 1298,
  "me": 1299,
  "\u0120led": 1300,
  "\u0120French": 1301,
  "\u0120what": 1302,
  "gin": 1303,
  "af": 1304,
  "\u0120Air": 1305,
  "\u0120report": 1306,
  "\u0120fre": 1307,
  "\u0120place": 1308,
  "rent": 1309,
  "\u0120aff": 1310,
  "yd": 1311,
  "\u0120pract": 1312,
  "ches": 1313,
  "rab": 1314,
  "\u0120Roman": 1315,
  "\u0120important": 1316,
  "ality": 1317,
  "empt": 1318,
  "\u0120start": 1319,
  "\u0120vis": 1320,
  "ument": 1321,
  "ugust": 1322,
  "\u0120build": 1323,
  "cing": 1324,
  "\u0120All": 1325,
  "\u0120child": 1326,
  "alth": 1327,
  "\u0120somet": 1328,
  "\u0120line": 1329,
  "hod": 1330,
  "by": 1331,
  "\u0120Mus": 1332,
  "\u0120move": 1333,
  "\u0120ve": 1334,
  "\u0120last": 1335,
  "\u0120bi": 1336,
  "\u0120crit": 1337,
  "ray": 1338,
  "app": 1339,
  "\u0120great": 1340,
  "\u0120development": 1341,
  "\u0120pat": 1342,
  "\u0120August": 1343,
  "istic": 1344,
  "\u0120Acc": 1345,
  "ither": 1346,
  "idd": 1347,
  "ively": 1348,
  "lin": 1349,
  "ales": 1350,
  "\u0120game": 1351,
  "\u0120BC": 1352,
  "rew": 1353,
  "cer": 1354,
  "ites": 1355,
  "\u0120school": 1356,
  "ilt": 1357,
  "\u0120usually": 1358,
  "\u0120developed": 1359,
  "\u0120make": 1360,
  "\u0120claim": 1361,
  "ms": 1362,
  "\u0120given": 1363,
  "ember": 1364,
  "\u0120anim": 1365,
  "\u0120military": 1366,
  "\u0120general": 1367,
  "med": 1368,
  "\u0120short": 1369,
  "..": 1370,
  "\u0120less": 1371,
  "\u0120mult": 1372,
  "day": 1373,
  "olic": 1374,
  "\u0120home": 1375,
  "\u0120occur": 1376,
  "\u0120left": 1377,
  "\u0120And": 1378,
  "tal": 1379,
  "\u0120ident": 1380,
  "amb": 1381,
  "\u0120Apol": 1382,
  "\u0120invol": 1383,
  "\u0120national": 1384,
  "\u0120German": 1385,
  "\u0120sug": 1386,
  "\u0120former": 1387,
  "\u0120US": 1388,
  "\u0120become": 1389,
  "\u0120without": 1390,
  "\u0120signific": 1391,
  "\u0120repl": 1392,
  "\u0120proper": 1393,
  "\u0120history": 1394,
  "\u0120ide": 1395,
  "\u0120old": 1396,
  "ocial": 1397,
  "\u0120countries": 1398,
  "\u0120fore": 1399,
  "\u0120another": 1400,
  "\u0120lim": 1401,
  "\u0120During": 1402,
  "\u0120anal": 1403,
  "uted": 1404,
  "ata": 1405,
  "\u0120When": 1406,
  "be": 1407,
  "\u0120single": 1408,
  "\u0120colle": 1409,
  "itution": 1410,
  "\u0120need": 1411,
  "\u0120His": 1412,
  "\u0120Will": 1413,
  "rand": 1414,
  "\u0120field": 1415,
  "\u0120inc": 1416,
  "ague": 1417,
  "The": 1418,
  "\u0120Ass": 1419,
  "\u0120every": 1420,
  "\u0120Russ": 1421,
  "\u0120York": 1422,
  "astern": 1423,
  "akes": 1424,
  "\u0120port": 1425,
  "ivil": 1426,
  "\u0120struct": 1427,
  "\u0120published": 1428,
  "ots": 1429,
  "\u0120dev": 1430,
  "urther": 1431,
  "wards": 1432,
  "omin": 1433,
  "\u0120local": 1434,
  "\u0120prim": 1435,
  "ats": 1436,
  "\u0120arg": 1437,
  "line": 1438,
  "ware": 1439,
  "ule": 1440,
  "\u0120cr": 1441,
  "\u0120prot": 1442,
  "ling": 1443,
  "\u0120states": 1444,
  "\u0120obs": 1445,
  "\u0120Cal": 1446,
  "\u0120go": 1447,
  "\u0120family": 1448,
  "\u0120down": 1449,
  "ze": 1450,
  "\u0120Ear": 1451,
  "cil": 1452,
  "\u0120bus": 1453,
  "\u0120late": 1454,
  "ably": 1455,
  "\u0120associ": 1456,
  "ances": 1457,
  "\u0120Tr": 1458,
  "\u012012": 1459,
  "\u0120way": 1460,
  "\u0120political": 1461,
  "\u0120origin": 1462,
  "\u0120arch": 1463,
  "\u0120hig": 1464,
  "less": 1465,
  "ai": 1466,
  "\u0120European": 1467,
  "rote": 1468,
  "\u0120iss": 1469,
  "\u0120Ge": 1470,
  "\u0120few": 1471,
  "\u0120region": 1472,
  "\u0120Apollo": 1473,
  "\u0120caus": 1474,
  "ogn": 1475,
  "pecial": 1476,
  "\u0120Canad": 1477,
  "\u0120view": 1478,
  "\u0120exist": 1479,
  "ivid": 1480,
  "\u0120rul": 1481,
  "\u0120author": 1482,
  "\u0120however": 1483,
  "\u0120mill": 1484,
  "\u0120Church": 1485,
  "\u01209": 1486,
  "iron": 1487,
  "\u0120cond": 1488,
  "\u0120treat": 1489,
  "ones": 1490,
  "\u0120chang": 1491,
  "olution": 1492,
  "\u0120sk": 1493,
  "\u0120beh": 1494,
  "ential": 1495,
  "\u0120level": 1496,
  "\u0120202": 1497,
  "aterial": 1498,
  "\u0120body": 1499,
  "\u0120Bo": 1500,
  "ele": 1501,
  "ops": 1502,
  "\u0120hel": 1503,
  "\u0120included": 1504,
  "\u0120gl": 1505,
  "\u0120May": 1506,
  "\u0120independ": 1507,
  "au": 1508,
  "\u0120function": 1509,
  "\u0120indust": 1510,
  "ured": 1511,
  "\u0120men": 1512,
  "lear": 1513,
  "\u0120held": 1514,
  "\u0120tele": 1515,
  "ery": 1516,
  "\u0120Par": 1517,
  "aster": 1518,
  "\u0120prof": 1519,
  "\u0120kill": 1520,
  "\u0120Rep": 1521,
  "\u0120point": 1522,
  "idence": 1523,
  "side": 1524,
  "\u0120anc": 1525,
  "\u0120sour": 1526,
  "irc": 1527,
  "\u0120proble": 1528,
  "\u0120introdu": 1529,
  "\u0120pur": 1530,
  "ead": 1531,
  "ored": 1532,
  "\u0120Pr": 1533,
  "\u0120One": 1534,
  "hern": 1535,
  "\u0120although": 1536,
  "\u0120case": 1537,
  "\u012011": 1538,
  "\u0120day": 1539,
  "\u0120population": 1540,
  "ruction": 1541,
  "\u0120significant": 1542,
  "oon": 1543,
  "rain": 1544,
  "\u0120took": 1545,
  "bit": 1546,
  "\u0120camp": 1547,
  "ention": 1548,
  "ability": 1549,
  "\u0120193": 1550,
  "ering": 1551,
  "\u0120event": 1552,
  "\u0120prom": 1553,
  "formation": 1554,
  "ividual": 1555,
  "\u0120attempt": 1556,
  "\u0120Min": 1557,
  "\u0120Ex": 1558,
  "rict": 1559,
  "\u0120Char": 1560,
  "\u0120init": 1561,
  "sequ": 1562,
  "ott": 1563,
  "\u0120phys": 1564,
  "\u0120just": 1565,
  "\u0120space": 1566,
  "put": 1567,
  "\u0120wrote": 1568,
  "\u0120object": 1569,
  "\u0120suggest": 1570,
  "\u0120West": 1571,
  "ges": 1572,
  "\u0120separ": 1573,
  "\u0120material": 1574,
  "\u0120systems": 1575,
  "\u0120Fran": 1576,
  "\u0120According": 1577,
  "\u0120should": 1578,
  "orthern": 1579,
  "\u0120does": 1580,
  "ival": 1581,
  ".,": 1582,
  "\u0120God": 1583,
  "itive": 1584,
  "\u0120read": 1585,
  "atural": 1586,
  "\u0120method": 1587,
  "\u0120redu": 1588,
  "\u0120low": 1589,
  "\u0120activ": 1590,
  "\u0120having": 1591,
  "\u0120areas": 1592,
  "\u0120Oct": 1593,
  "\u0120relig": 1594,
  "\u0120largest": 1595,
  "\u0120Greek": 1596,
  "\u0120named": 1597,
  "\u0120Dav": 1598,
  "aun": 1599,
  "\u012014": 1600,
  "\u0120produced": 1601,
  "\u0120product": 1602,
  "rated": 1603,
  "emb": 1604,
  "most": 1605,
  "\u0120Ed": 1606,
  "\u0120role": 1607,
  "\u0120written": 1608,
  "for": 1609,
  "anu": 1610,
  "\u0120Bro": 1611,
  "\u0120cal": 1612,
  "\u0120wide": 1613,
  "aken": 1614,
  "\u0120original": 1615,
  "\u0120Christian": 1616,
  "ek": 1617,
  "\u0120individual": 1618,
  "\u0120band": 1619,
  "\u0120light": 1620,
  "\u0120established": 1621,
  "\u0120times": 1622,
  "\u0120cell": 1623,
  "\u0120test": 1624,
  "ained": 1625,
  "\u0120black": 1626,
  "ouncil": 1627,
  "\u0120Ber": 1628,
  "\u0120prev": 1629,
  "\u0120ep": 1630,
  "\u0120help": 1631,
  "\u0120er": 1632,
  "\u0120decl": 1633,
  "\u0120sym": 1634,
  "\u0120north": 1635,
  "che": 1636,
  "\u0120appear": 1637,
  "iving": 1638,
  "iness": 1639,
  "alf": 1640,
  "\u012013": 1641,
  "\u0120Union": 1642,
  "ril": 1643,
  "\u0120mean": 1644,
  "\u0120rese": 1645,
  "\u0120Sept": 1646,
  "ape": 1647,
  "ploy": 1648,
  "\u0120real": 1649,
  "\u0120must": 1650,
  "\u0120mag": 1651,
  "\u0120Her": 1652,
  "omb": 1653,
  "ends": 1654,
  "\u0120win": 1655,
  "augh": 1656,
  "ype": 1657,
  "ham": 1658,
  "\u0120either": 1659,
  "\u0120built": 1660,
  "ched": 1661,
  "ctor": 1662,
  "\u0120sometimes": 1663,
  "aur": 1664,
  "aut": 1665,
  "\u0120take": 1666,
  "\u0120service": 1667,
  "ote": 1668,
  "\u0120bre": 1669,
  "ways": 1670,
  "\u0120five": 1671,
  "ipp": 1672,
  "alk": 1673,
  "abor": 1674,
  "thern": 1675,
  "oms": 1676,
  "\u0120king": 1677,
  "ffic": 1678,
  "\u0120Arab": 1679,
  "ilos": 1680,
  "\u0120released": 1681,
  "ym": 1682,
  "\u0120turn": 1683,
  "bert": 1684,
  "\u0120theory": 1685,
  "\u0120England": 1686,
  "\u0120sent": 1687,
  "anes": 1688,
  "\u0120Other": 1689,
  "\u0120production": 1690,
  "\u0120my": 1691,
  "\u0120grow": 1692,
  "zer": 1693,
  "atures": 1694,
  "\u0120del": 1695,
  "\u0120others": 1696,
  "\u0120el": 1697,
  "umb": 1698,
  "\u0120described": 1699,
  "\u0120played": 1700,
  "rian": 1701,
  "ison": 1702,
  "uly": 1703,
  "outhern": 1704,
  "\u0120games": 1705,
  "\u0120top": 1706,
  "\u0120generally": 1707,
  "acy": 1708,
  "\u0120base": 1709,
  "ining": 1710,
  "\u0120languages": 1711,
  "\u0120social": 1712,
  "ency": 1713,
  "\u0120Although": 1714,
  "\u0120six": 1715,
  "ler": 1716,
  "\u0120sw": 1717,
  "pecially": 1718,
  "\u0120south": 1719,
  "\u0120America": 1720,
  "\u0120strong": 1721,
  "used": 1722,
  "\u0120alb": 1723,
  "\u0120study": 1724,
  "face": 1725,
  "\u0120September": 1726,
  "eth": 1727,
  "\u0120Gen": 1728,
  "\u0120let": 1729,
  "ille": 1730,
  "\u0120\u0120": 1731,
  "\u0120tit": 1732,
  "ergy": 1733,
  "overed": 1734,
  "\u0120dest": 1735,
  "urg": 1736,
  "here": 1737,
  "ected": 1738,
  "\u0120Hist": 1739,
  "yle": 1740,
  "aces": 1741,
  "\u0120official": 1742,
  "\u0120relations": 1743,
  "aries": 1744,
  "\u0120groups": 1745,
  "\u0120William": 1746,
  "\u0120how": 1747,
  "\u0120works": 1748,
  "\u0120position": 1749,
  "self": 1750,
  "co": 1751,
  "\u0120mass": 1752,
  "\u0120special": 1753,
  "ban": 1754,
  "\u0120circ": 1755,
  "aren": 1756,
  "\u0120free": 1757,
  "\u0120Act": 1758,
  "\u0120earli": 1759,
  "\u0120ver": 1760,
  "ret": 1761,
  "incip": 1762,
  "ung": 1763,
  "\u0120son": 1764,
  "\u0120further": 1765,
  "\u0120While": 1766,
  "reen": 1767,
  "ondon": 1768,
  "\u0120came": 1769,
  "\u0120Many": 1770,
  "\u0120vol": 1771,
  "fic": 1772,
  "\u0120mot": 1773,
  "ips": 1774,
  "\u0120She": 1775,
  "\u0120Jew": 1776,
  "\u0120company": 1777,
  "cul": 1778,
  "anuary": 1779,
  "\u0120song": 1780,
  "\u0120addition": 1781,
  "\u0120possible": 1782,
  "\u0120With": 1783,
  "\u0120rather": 1784,
  "\u0120Black": 1785,
  "bs": 1786,
  "bon": 1787,
  "\u0120post": 1788,
  "\u0120Ac": 1789,
  "\u0120Bel": 1790,
  "ending": 1791,
  "vision": 1792,
  "asing": 1793,
  "\u0120Br": 1794,
  "\u0120created": 1795,
  "\u0120version": 1796,
  "\u0120October": 1797,
  "\u0120syn": 1798,
  "\u0120Republic": 1799,
  "work": 1800,
  "\u0120third": 1801,
  "iation": 1802,
  "\u0120Gu": 1803,
  "\u0120January": 1804,
  "osp": 1805,
  "ify": 1806,
  "mon": 1807,
  "rap": 1808,
  "\u0120ri": 1809,
  "\u0120Alexander": 1810,
  "sh": 1811,
  "\u0120territ": 1812,
  "\u0120191": 1813,
  "\u0120Part": 1814,
  "\u0120range": 1815,
  "ridge": 1816,
  "cember": 1817,
  "\u0120forces": 1818,
  "ification": 1819,
  "let": 1820,
  "\u0120express": 1821,
  "\u0120Emp": 1822,
  "\u0120avail": 1823,
  "\u0120parts": 1824,
  "then": 1825,
  "ociety": 1826,
  "\u0120certain": 1827,
  "\u0120Har": 1828,
  "ovember": 1829,
  "\u0120chem": 1830,
  "\u0120London": 1831,
  "\u0120David": 1832,
  "atin": 1833,
  "sc": 1834,
  "avy": 1835,
  "\u0120current": 1836,
  "rance": 1837,
  "etic": 1838,
  "\u0120tri": 1839,
  "\u0120July": 1840,
  "\u0120sold": 1841,
  "\u0120International": 1842,
  "\u0120Book": 1843,
  "\u0120especially": 1844,
  "\u0120March": 1845,
  "\u0120enc": 1846,
  "lor": 1847,
  "\u0120East": 1848,
  "utions": 1849,
  "\u0120sum": 1850,
  "\u0120meas": 1851,
  "\u0120December": 1852,
  "\u0120-": 1853,
  "\u0120X": 1854,
  "\u0120town": 1855,
  "\u0120numbers": 1856,
  "arian": 1857,
  "\u0120April": 1858,
  "aul": 1859,
  "enced": 1860,
  "\u0120Mon": 1861,
  "\u0120November": 1862,
  "\u0120aircraft": 1863,
  "\u0120ast": 1864,
  "\u0120bar": 1865,
  "\u0120complex": 1866,
  "iction": 1867,
  "ope": 1868,
  "\u0120food": 1869,
  "\u0120good": 1870,
  "eum": 1871,
  "\u0120side": 1872,
  "\u0120close": 1873,
  "\u0120compet": 1874,
  "\u0120continued": 1875,
  "BC": 1876,
  "\u0120capital": 1877,
  "\u0120Med": 1878,
  "\u0120Geor": 1879,
  "arily": 1880,
  "\u0120broad": 1881,
  "\u0120recogn": 1882,
  "\u0120computer": 1883,
  "ateg": 1884,
  "\u0120list": 1885,
  "\u0120natural": 1886,
  "\u0120data": 1887,
  "\u0120June": 1888,
  "\u0120Western": 1889,
  "ming": 1890,
  "\u0120interest": 1891,
  "ps": 1892,
  "\u0120pri": 1893,
  "\u0120pot": 1894,
  "\u0120Press": 1895,
  "\u0120elements": 1896,
  "iddle": 1897,
  "ples": 1898,
  "like": 1899,
  "\u0120priv": 1900,
  "\u0120educ": 1901,
  "\u0120observ": 1902,
  "\u0120album": 1903,
  "ald": 1904,
  "hers": 1905,
  "aly": 1906,
  "ths": 1907,
  "ert": 1908,
  "\u0120care": 1909,
  "\u0120battle": 1910,
  "\u0120Art": 1911,
  "\u0120international": 1912,
  "\u0120abs": 1913,
  "\u0120Jap": 1914,
  "\u0120frequ": 1915,
  "oung": 1916,
  "\u0120million": 1917,
  "\u0120Empire": 1918,
  "\u0120fail": 1919,
  "aves": 1920,
  "atter": 1921,
  "rag": 1922,
  "\u0120civil": 1923,
  "\u0120App": 1924,
  "ief": 1925,
  "ront": 1926,
  "\u0120member": 1927,
  "iment": 1928,
  "oyal": 1929,
  "lation": 1930,
  "\u0120hold": 1931,
  "ounced": 1932,
  "\u0120subject": 1933,
  "\u0120accept": 1934,
  "mit": 1935,
  "wh": 1936,
  "eration": 1937,
  "\u0120formed": 1938,
  "\u0120cat": 1939,
  "ana": 1940,
  "rug": 1941,
  "ensive": 1942,
  "chan": 1943,
  "\u0120forms": 1944,
  "\u0120City": 1945,
  "\u0120Most": 1946,
  "\u0120terms": 1947,
  "\u0120received": 1948,
  "\u0120never": 1949,
  "\u0120type": 1950,
  "\u0120season": 1951,
  "\u0120impro": 1952,
  "\u0120Army": 1953,
  "\u0120press": 1954,
  "\u0120admin": 1955,
  "\u0120princip": 1956,
  "int": 1957,
  "\u0120der": 1958,
  "viron": 1959,
  "\u0120won": 1960,
  "\u0120throughout": 1961,
  "cur": 1962,
  "reg": 1963,
  "ators": 1964,
  "\u0120cop": 1965,
  "oid": 1966,
  "ask": 1967,
  "\u0120subst": 1968,
  "eter": 1969,
  "\u0120Man": 1970,
  "\u0120children": 1971,
  "\u0120women": 1972,
  "\u0120available": 1973,
  "\u0120192": 1974,
  "adem": 1975,
  "\u0120exec": 1976,
  "\u0120account": 1977,
  "ising": 1978,
  "\u0120multip": 1979,
  "\u0120ge": 1980,
  "ights": 1981,
  "ude": 1982,
  "\u0120colon": 1983,
  "hib": 1984,
  "ibr": 1985,
  "\u0120manag": 1986,
  "\u0120engine": 1987,
  "reme": 1988,
  "\u0120seen": 1989,
  "\u0120cy": 1990,
  "\u0120African": 1991,
  "\u0120host": 1992,
  "\u0120died": 1993,
  "\u0120ren": 1994,
  "\u0120making": 1995,
  "\u0120least": 1996,
  "\u0120previous": 1997,
  "osition": 1998,
  "ached": 1999,
  "\u0120laun": 2000,
  "of": 2001,
  "\u0120research": 2002,
  "val": 2003,
  "rum": 2004,
  "ened": 2005,
  "raw": 2006,
  "\u0120evidence": 2007,
  "\u0120Cor": 2008,
  "\u0120central": 2009,
  "\u0120complete": 2010,
  "utes": 2011,
  "ades": 2012,
  "\u0120ground": 2013,
  "sp": 2014,
  "\u0120age": 2015,
  "\u0120half": 2016,
  "\u0120himself": 2017,
  "\u0120Sw": 2018,
  "\u0120lower": 2019,
  "\u0120ancient": 2020,
  "itu": 2021,
  "\u0120Since": 2022,
  "\u0120army": 2023,
  "\u0120feature": 2024,
  "stand": 2025,
  "\u0120super": 2026,
  "inese": 2027,
  "\u0120Sov": 2028,
  "\u0120Ant": 2029,
  "\u0120philos": 2030,
  "\u0120economic": 2031,
  "\u0120thus": 2032,
  "imate": 2033,
  "istan": 2034,
  "\u0120tro": 2035,
  "\u0120capt": 2036,
  "ria": 2037,
  "\u0120force": 2038,
  "\u0120Pres": 2039,
  "\u0120coast": 2040,
  "lam": 2041,
  "\u0120offer": 2042,
  "\u0120standard": 2043,
  "\u0120information": 2044,
  "\u0120regard": 2045,
  "\u0120Australian": 2046,
  "iber": 2047,
  "alt": 2048,
  "\u0120net": 2049,
  "\u0120Ne": 2050,
  "\u0120eth": 2051,
  "\u0120pain": 2052,
  "\u0120days": 2053,
  "ption": 2054,
  "\u0120den": 2055,
  "\u0120Canada": 2056,
  "erous": 2057,
  "bo": 2058,
  "\u0120Cath": 2059,
  "\u0120command": 2060,
  "kn": 2061,
  "\u0120deb": 2062,
  "\u0120If": 2063,
  "play": 2064,
  "aper": 2065,
  "\u0120tre": 2066,
  "\u0120Great": 2067,
  "\u0120consist": 2068,
  "\u0120island": 2069,
  "ama": 2070,
  "\u0120Co": 2071,
  "\u0120above": 2072,
  "\u0120find": 2073,
  "\u0120Des": 2074,
  "inary": 2075,
  "\u0120Bra": 2076,
  "ford": 2077,
  "\u0120Pol": 2078,
  "ique": 2079,
  "\u0120Su": 2080,
  "\u0120gr": 2081,
  "\u0120across": 2082,
  "arn": 2083,
  "\u0120Africa": 2084,
  "\u0120concept": 2085,
  "\u0120means": 2086,
  "\u0120hard": 2087,
  "\u0120Ser": 2088,
  "\u0120scient": 2089,
  "cript": 2090,
  "\u0120project": 2091,
  "\u0120conc": 2092,
  "\u0120join": 2093,
  "\u0120court": 2094,
  "\u0120ball": 2095,
  "\u0120profess": 2096,
  "\u0120taken": 2097,
  "ula": 2098,
  "rael": 2099,
  "\u0120polic": 2100,
  "\u0120To": 2101,
  "lement": 2102,
  "\u0120entire": 2103,
  "\u0120Earth": 2104,
  "\u0120River": 2105,
  "gypt": 2106,
  "\u0120best": 2107,
  "pite": 2108,
  "\u0120model": 2109,
  "AS": 2110,
  "\u0120flow": 2111,
  "\u0120agre": 2112,
  "iol": 2113,
  "\u0120upon": 2114,
  "ingu": 2115,
  "\u0120tw": 2116,
  "\u0120energy": 2117,
  "\u0120determ": 2118,
  "\u0120fire": 2119,
  "\u0120begin": 2120,
  "\u0120Kingdom": 2121,
  "\u0120red": 2122,
  "\u0120next": 2123,
  "\u0120Comp": 2124,
  "200": 2125,
  "\u0120soft": 2126,
  "inct": 2127,
  "\u0120prote": 2128,
  "\u0120Inst": 2129,
  "\u0120includes": 2130,
  "ney": 2131,
  "\u0120located": 2132,
  "\u0120president": 2133,
  "\u0120party": 2134,
  "\u0120traditional": 2135,
  "\u0120maintain": 2136,
  "\u0120Sy": 2137,
  "\u0120access": 2138,
  "ef": 2139,
  "lant": 2140,
  "bor": 2141,
  "\u0120Egypt": 2142,
  "\u0120House": 2143,
  "\u0120Kh": 2144,
  "\u0120player": 2145,
  "\u0120indic": 2146,
  "\u0120market": 2147,
  "isc": 2148,
  "\u0120followed": 2149,
  "\u0120final": 2150,
  "icro": 2151,
  "\u0120Const": 2152,
  "\u0120culture": 2153,
  "\u0120conn": 2154,
  "\u0120novel": 2155,
  "\u0120sex": 2156,
  "\u0120adop": 2157,
  "\u0120successful": 2158,
  "\u0120business": 2159,
  "cle": 2160,
  "\u0120total": 2161,
  "ceed": 2162,
  "pir": 2163,
  "\u0120Te": 2164,
  "\u0120France": 2165,
  "oly": 2166,
  "\u0120father": 2167,
  "\u0120di": 2168,
  "\u0120change": 2169,
  "sel": 2170,
  "\u0120Chinese": 2171,
  "\u0120relative": 2172,
  "\u0120full": 2173,
  "\u0120neg": 2174,
  "\u0120instead": 2175,
  "\u0120anti": 2176,
  "\u0120Res": 2177,
  "iforn": 2178,
  "\u0120related": 2179,
  "ino": 2180,
  "\u0120El": 2181,
  "\u0120China": 2182,
  "\u0120text": 2183,
  "\u0120liter": 2184,
  "rast": 2185,
  "\u0120India": 2186,
  "fact": 2187,
  "\u0120doc": 2188,
  "gether": 2189,
  "ving": 2190,
  "\u0120together": 2191,
  "\u0120Latin": 2192,
  "\u0120contain": 2193,
  "\u0120foot": 2194,
  "\u0120Sm": 2195,
  "\u0120perm": 2196,
  "\u0120associated": 2197,
  "\u0120Soviet": 2198,
  "\u0120norm": 2199,
  "ads": 2200,
  "\u0120thought": 2201,
  "\u0120Conf": 2202,
  "vironment": 2203,
  "\u0120z": 2204,
  "atory": 2205,
  "\u0120trade": 2206,
  "\u0120provide": 2207,
  "\u0120sound": 2208,
  "\u0120mid": 2209,
  "\u0120Athen": 2210,
  "\u0120cases": 2211,
  "\u0120foc": 2212,
  "\u0120Australia": 2213,
  "\u0120higher": 2214,
  "\u0120mer": 2215,
  "\u0120except": 2216,
  "\u0120Phil": 2217,
  "\u0120Bas": 2218,
  "udd": 2219,
  "sy": 2220,
  "\u0120invest": 2221,
  "ebru": 2222,
  "\u0120almost": 2223,
  "order": 2224,
  "\u0120imm": 2225,
  "\u0120community": 2226,
  "bra": 2227,
  "unic": 2228,
  "ebruary": 2229,
  "\u0120see": 2230,
  "aff": 2231,
  "\u0120mount": 2232,
  "\u0120becom": 2233,
  "rest": 2234,
  "mercial": 2235,
  "\u0120itself": 2236,
  "ography": 2237,
  "action": 2238,
  "\u0120cover": 2239,
  "\u0120Pers": 2240,
  "\u0120Britain": 2241,
  "\u0120altern": 2242,
  "\u0120movement": 2243,
  "ficult": 2244,
  "\u0120miss": 2245,
  "\u0120Council": 2246,
  "\u0120Pe": 2247,
  "\u0120tar": 2248,
  "\u0120hyd": 2249,
  "cret": 2250,
  "\u0120plan": 2251,
  "ours": 2252,
  "ternal": 2253,
  "ica": 2254,
  "liament": 2255,
  "ought": 2256,
  "not": 2257,
  "\u0120ox": 2258,
  "\u0120fac": 2259,
  "icle": 2260,
  "\u0120Count": 2261,
  "\u0120employ": 2262,
  "\u0120electron": 2263,
  "\u0120films": 2264,
  "\u0120key": 2265,
  "\u0120influence": 2266,
  "\u0120fav": 2267,
  "\u0120players": 2268,
  "\u0120according": 2269,
  "\u0120introduced": 2270,
  "\u0120concern": 2271,
  "\u0120able": 2272,
  "ports": 2273,
  "\u0120difficult": 2274,
  "\u0120temper": 2275,
  "\u0120Central": 2276,
  "\u0120particularly": 2277,
  "aign": 2278,
  "iers": 2279,
  "\u0120February": 2280,
  "\u0120applic": 2281,
  "\u0120know": 2282,
  "chie": 2283,
  "\u0120referred": 2284,
  "ma": 2285,
  "\u0120features": 2286,
  "\u0120reported": 2287,
  "\u0120poin": 2288,
  "\u0120prob": 2289,
  "\u0120typically": 2290,
  "roy": 2291,
  "\u0120surv": 2292,
  "\u0120rights": 2293,
  "\u0120trib": 2294,
  "amples": 2295,
  "\u0120television": 2296,
  "hest": 2297,
  "anted": 2298,
  "\u0120value": 2299,
  "iles": 2300,
  "\u0120allowed": 2301,
  "\u0120building": 2302,
  "\u0120Californ": 2303,
  "atives": 2304,
  "\u0120lack": 2305,
  "ourt": 2306,
  "ounter": 2307,
  "yr": 2308,
  "oted": 2309,
  "\u0120respons": 2310,
  "\u0120stri": 2311,
  "\u0120tradition": 2312,
  "\u0120State": 2313,
  "\u0120defe": 2314,
  "ush": 2315,
  "ocr": 2316,
  "\u0120travel": 2317,
  "\u0120cross": 2318,
  "\u0120far": 2319,
  "\u0120compan": 2320,
  "\u0120surface": 2321,
  "medi": 2322,
  "\u0120story": 2323,
  "\u0120whose": 2324,
  "cast": 2325,
  "att": 2326,
  "\u0120fri": 2327,
  "ideo": 2328,
  "\u0120continu": 2329,
  "\u0120br": 2330,
  "\u0120Camb": 2331,
  "\u0120crew": 2332,
  "\u0120fall": 2333,
  "ibility": 2334,
  "\u0120structure": 2335,
  "\u0120contrib": 2336,
  "\u0120fund": 2337,
  "\u0120once": 2338,
  "\u0120ste": 2339,
  "\u0120deg": 2340,
  "\u0120specific": 2341,
  "\u0120required": 2342,
  "\u0120words": 2343,
  "\u0120Indian": 2344,
  "imately": 2345,
  "\u0120Catholic": 2346,
  "ream": 2347,
  "\u0120respect": 2348,
  "\u0120Germany": 2349,
  "\u0120schol": 2350,
  "born": 2351,
  "uel": 2352,
  "oral": 2353,
  "ties": 2354,
  "iverse": 2355,
  "\u0120size": 2356,
  "iting": 2357,
  "uth": 2358,
  "ara": 2359,
  "\u0120Arch": 2360,
  "\u0120books": 2361,
  "\u0120religious": 2362,
  "\u0120Cong": 2363,
  "\u0120From": 2364,
  "\u0120services": 2365,
  "\u0120Colle": 2366,
  "clus": 2367,
  "\u0120might": 2368,
  "\u0120190": 2369,
  "ysis": 2370,
  "\u0120California": 2371,
  "\u0120served": 2372,
  "rought": 2373,
  "\u0120administ": 2374,
  "\u0120Park": 2375,
  "\u0120science": 2376,
  "\u0120(\"": 2377,
  "\u0120Tur": 2378,
  "anish": 2379,
  "\u0120Me": 2380,
  "II": 2381,
  "\u0120star": 2382,
  "\u0120League": 2383,
  "\u0120integ": 2384,
  "istry": 2385,
  "\u0120mach": 2386,
  "\u0120remained": 2387,
  "oll": 2388,
  "\u0120uses": 2389,
  "\u0120disp": 2390,
  "ederal": 2391,
  "ume": 2392,
  "uck": 2393,
  "50": 2394,
  "\u0120Cro": 2395,
  "\u01202007": 2396,
  "\u0120commonly": 2397,
  "\u0120We": 2398,
  "ixed": 2399,
  "lying": 2400,
  "\u0120types": 2401,
  "\u0120Per": 2402,
  "\u0120186": 2403,
  "\u0120lo": 2404,
  "\u0120Mc": 2405,
  "\u0120meet": 2406,
  "\u0120believed": 2407,
  "ulf": 2408,
  "\u0120fig": 2409,
  "\u0120house": 2410,
  "oses": 2411,
  "\u0120industry": 2412,
  "\u0120prevent": 2413,
  "\u0120events": 2414,
  "\u0120communic": 2415,
  "\u0120gre": 2416,
  "\u01201990": 2417,
  "\u0120meaning": 2418,
  "\u0120style": 2419,
  "\u0120provided": 2420,
  "\u0120Atlant": 2421,
  "itch": 2422,
  "ols": 2423,
  "aps": 2424,
  "\u0120vict": 2425,
  "\u0120mechan": 2426,
  "ems": 2427,
  "\u0120Sea": 2428,
  "\u0120ill": 2429,
  "ington": 2430,
  "rial": 2431,
  "\u0120Em": 2432,
  "\u0120jud": 2433,
  "\u0120announced": 2434,
  "\u0120white": 2435,
  "\u0120increasing": 2436,
  "itect": 2437,
  "\u0120pen": 2438,
  "\u0120nuc": 2439,
  "\u0120commercial": 2440,
  "\u0120element": 2441,
  "\u0120tour": 2442,
  "\u0120larger": 2443,
  "\u0120emer": 2444,
  "\u0120behav": 2445,
  "\u0120Rober": 2446,
  "ength": 2447,
  "uries": 2448,
  "\u0120cause": 2449,
  "\u0120San": 2450,
  "\u0120Charles": 2451,
  "\u0120Reg": 2452,
  "\u0120killed": 2453,
  "\u0120northern": 2454,
  "\u0120site": 2455,
  "\u0120necess": 2456,
  "ires": 2457,
  "ulated": 2458,
  "\u0120rule": 2459,
  "\u0120effects": 2460,
  "\u0120School": 2461,
  "\u0120moved": 2462,
  "\u0120mission": 2463,
  "\u0120interp": 2464,
  "\u0120campaign": 2465,
  "\u0120Pal": 2466,
  "\u0120Port": 2467,
  "\u0120defin": 2468,
  "wood": 2469,
  "\u0120rock": 2470,
  "\u0120quest": 2471,
  "lim": 2472,
  "\u0120whether": 2473,
  "\u01202006": 2474,
  "\u0120prin": 2475,
  "\u012021": 2476,
  "su": 2477,
  "\u0120lost": 2478,
  "199": 2479,
  "\u0120source": 2480,
  "\u0120dou": 2481,
  "iding": 2482,
  "\u0120ord": 2483,
  "\u0120designed": 2484,
  "\u0120critic": 2485,
  "irth": 2486,
  "go": 2487,
  "\u0120transport": 2488,
  "\u0120widely": 2489,
  "\u0120god": 2490,
  "omm": 2491,
  "\u012030": 2492,
  "ership": 2493,
  "\u0120consider": 2494,
  "\u0120aud": 2495,
  "orph": 2496,
  "\u0120put": 2497,
  "\u0120domin": 2498,
  "off": 2499,
  "\u0120George": 2500,
  "\u0120past": 2501,
  "istance": 2502,
  "\u0120gave": 2503,
  "\u0120James": 2504,
  "\u01202010": 2505,
  "oney": 2506,
  "\u01201980": 2507,
  "ophy": 2508,
  "\u0120log": 2509,
  "\u0120longer": 2510,
  "\u0120achie": 2511,
  "\u0120ang": 2512,
  "\u0120legal": 2513,
  "ourn": 2514,
  "\u0120outside": 2515,
  "\u0120little": 2516,
  "based": 2517,
  "ference": 2518,
  "het": 2519,
  "\u0120nature": 2520,
  "\u01202000": 2521,
  "\u0120live": 2522,
  "\u0120church": 2523,
  "\u0120pred": 2524,
  "\u0120produce": 2525,
  "\u0120private": 2526,
  "\u0120caused": 2527,
  "\u0120purp": 2528,
  "\u0120Party": 2529,
  "selves": 2530,
  "\u0120mother": 2531,
  "\u0120rail": 2532,
  "\u0120increased": 2533,
  "\u0120started": 2534,
  "anks": 2535,
  "\u0120fem": 2536,
  "\u0120target": 2537,
  "\u0120went": 2538,
  "\u0120Court": 2539,
  "\u0120suff": 2540,
  "\u01202008": 2541,
  "ranch": 2542,
  "\u0120distrib": 2543,
  "\u01201970": 2544,
  "\u0120symb": 2545,
  "ilities": 2546,
  "\u0120Thom": 2547,
  "\u0120carbon": 2548,
  "\u0120brought": 2549,
  "ental": 2550,
  "\u01202011": 2551,
  "\u0120squ": 2552,
  "\u0120blood": 2553,
  "\u0120health": 2554,
  "\u0120No": 2555,
  "\u0120eventually": 2556,
  "\u0120UK": 2557,
  "\u0120astron": 2558,
  "\u0120away": 2559,
  "\u01202009": 2560,
  "ibrary": 2561,
  "\u0120environment": 2562,
  "\u0120reb": 2563,
  "\u0120President": 2564,
  "\u0120[": 2565,
  "\u0120remains": 2566,
  "view": 2567,
  "\u0120conditions": 2568,
  "\u0120viol": 2569,
  "\u0120Cont": 2570,
  "\u0120writing": 2571,
  "\u0120leading": 2572,
  "\u0120likely": 2573,
  "\u0120sat": 2574,
  "\u0120General": 2575,
  "itute": 2576,
  "\u0120gra": 2577,
  "aching": 2578,
  "anese": 2579,
  "\u0120dial": 2580,
  "\u0120appeared": 2581,
  "\")": 2582,
  "\u0120mathem": 2583,
  "\u0120independent": 2584,
  "\u0120education": 2585,
  "\u0120fle": 2586,
  "\u0120Dem": 2587,
  "ills": 2588,
  "eleb": 2589,
  "anced": 2590,
  "\u0120relationship": 2591,
  "\u0120cities": 2592,
  "light": 2593,
  "\u0120changes": 2594,
  "oice": 2595,
  "\u0120Asia": 2596,
  "\u0120added": 2597,
  "reet": 2598,
  "\u0120election": 2599,
  "\u0120radio": 2600,
  "ores": 2601,
  "\u0120code": 2602,
  "\u0120returned": 2603,
  "\u0120Ste": 2604,
  "\u0120effort": 2605,
  "\u0120require": 2606,
  "\u0120replaced": 2607,
  "\u0120hydro": 2608,
  "otic": 2609,
  "\u0120sea": 2610,
  "rate": 2611,
  "\u0120coll": 2612,
  "itiz": 2613,
  "\u0120Govern": 2614,
  "\u0120regions": 2615,
  "\u0120problems": 2616,
  "hing": 2617,
  "\u0120clear": 2618,
  "\u0120et": 2619,
  "\u0120themselves": 2620,
  "\u0120problem": 2621,
  "\u0120software": 2622,
  "\u0120southern": 2623,
  "ufact": 2624,
  "amer": 2625,
  "\u0120High": 2626,
  "\u0120physical": 2627,
  "\u0120vir": 2628,
  "\u01201960": 2629,
  "\u0120animals": 2630,
  "\u0120self": 2631,
  "\u0120west": 2632,
  "\u0120acid": 2633,
  "\u0120particip": 2634,
  "\u0120eas": 2635,
  "\u0120conver": 2636,
  "ricult": 2637,
  "\u0120189": 2638,
  "\u0120action": 2639,
  "\u0120Royal": 2640,
  "\u0120manufact": 2641,
  "ett": 2642,
  "irit": 2643,
  "\u0120companies": 2644,
  "\u0120cost": 2645,
  "uture": 2646,
  "\u0120condu": 2647,
  "pper": 2648,
  "acters": 2649,
  "\u0120variety": 2650,
  "\u0120east": 2651,
  "\u0120defined": 2652,
  "asion": 2653,
  "\u0120reason": 2654,
  "\u0120AD": 2655,
  "\u0120practice": 2656,
  "\u0120Bay": 2657,
  "iff": 2658,
  "\u0120quant": 2659,
  "\u0120recorded": 2660,
  "\u0120ten": 2661,
  "ows": 2662,
  "ques": 2663,
  "\u0120months": 2664,
  "\u0120limited": 2665,
  "\u0120dig": 2666,
  "\u0120Bur": 2667,
  "\u0120founded": 2668,
  "lied": 2669,
  "mar": 2670,
  "\u0120speak": 2671,
  "\u0120poly": 2672,
  "\u0120fight": 2673,
  "\u0120Columb": 2674,
  "ael": 2675,
  "\u0120bank": 2676,
  "\u0120Gl": 2677,
  "aval": 2678,
  "\u0120brother": 2679,
  "\u0120dom": 2680,
  "ump": 2681,
  "elling": 2682,
  "\u0120subsequ": 2683,
  "\u0120always": 2684,
  "\u0120ris": 2685,
  "\u0120say": 2686,
  "\u0120Hen": 2687,
  "\u0120characters": 2688,
  "\u0120establish": 2689,
  "onse": 2690,
  "itor": 2691,
  "odes": 2692,
  "\u0120majority": 2693,
  "\u0120Trans": 2694,
  "cies": 2695,
  "\u0120contro": 2696,
  "isms": 2697,
  "icles": 2698,
  "oul": 2699,
  "\u0120saw": 2700,
  "\u0120Mor": 2701,
  "\u0120Paul": 2702,
  "\u0120video": 2703,
  "\u0120club": 2704,
  "\u0120foreign": 2705,
  "\u0120AC": 2706,
  "\u0120stated": 2707,
  "\u0120dam": 2708,
  "\u0120grad": 2709,
  "\u0120amount": 2710,
  "\u0120cultural": 2711,
  "resp": 2712,
  "\u0120ess": 2713,
  "\u0120Day": 2714,
  "\u0120regular": 2715,
  "\u0120Israel": 2716,
  "artment": 2717,
  "\u0120dise": 2718,
  "\u0120Frank": 2719,
  "\u0120chemical": 2720,
  "\u0120towards": 2721,
  "\u0120hon": 2722,
  "\u0120alg": 2723,
  "\u0120involved": 2724,
  "\u0120come": 2725,
  "\u0120percent": 2726,
  "\u0120approx": 2727,
  "\u0120Battle": 2728,
  "\u0120hom": 2729,
  "\u0120smaller": 2730,
  "\u0120directly": 2731,
  "ike": 2732,
  "\u0120che": 2733,
  "ror": 2734,
  "irds": 2735,
  "\u0120personal": 2736,
  "\u0120architect": 2737,
  "\u0120Mich": 2738,
  "alled": 2739,
  "phas": 2740,
  "\u0120historical": 2741,
  "\u0120territory": 2742,
  "isions": 2743,
  "\u01202005": 2744,
  "ulg": 2745,
  "\u0120station": 2746,
  "\u01202014": 2747,
  "\u0120distinct": 2748,
  "\u0120Russian": 2749,
  "\u0120award": 2750,
  "berg": 2751,
  "ously": 2752,
  "\u01202012": 2753,
  "ali": 2754,
  "\u0120constitution": 2755,
  "\u0120lines": 2756,
  "\u0120Ben": 2757,
  "\u0120Bab": 2758,
  "och": 2759,
  "\u0120celeb": 2760,
  "\u0120too": 2761,
  "\u0120today": 2762,
  "\u0120Mount": 2763,
  "ects": 2764,
  "\u01202013": 2765,
  "\u0120primary": 2766,
  "\u0120title": 2767,
  "\u0120treatment": 2768,
  "\u0120dyn": 2769,
  "utive": 2770,
  "\u012025": 2771,
  "key": 2772,
  "18": 2773,
  "itude": 2774,
  "sych": 2775,
  "\u0120remov": 2776,
  "rang": 2777,
  "\u0120100": 2778,
  "\u0120opt": 2779,
  "\u0120adapt": 2780,
  "\u0120young": 2781,
  "vention": 2782,
  "\u0120increase": 2783,
  "known": 2784,
  "\u0120names": 2785,
  "\u0120Hol": 2786,
  "ands": 2787,
  "ression": 2788,
  "\u0120earlier": 2789,
  "igned": 2790,
  "ounds": 2791,
  "\u0120mostly": 2792,
  "ux": 2793,
  "\u0120Afgh": 2794,
  "\u0120veh": 2795,
  "\u0120Robert": 2796,
  "\u0120aver": 2797,
  "\u0120Mod": 2798,
  "\u0120Its": 2799,
  "\u0120nar": 2800,
  "ests": 2801,
  "peror": 2802,
  "\u0120results": 2803,
  "\u0120ax": 2804,
  "aria": 2805,
  "\u0120ur": 2806,
  "anded": 2807,
  "\u0120Rich": 2808,
  "\u0120spok": 2809,
  "ection": 2810,
  "\u0120fish": 2811,
  "asc": 2812,
  "\u0120Sim": 2813,
  "ables": 2814,
  "ledge": 2815,
  "\u0120bene": 2816,
  "ste": 2817,
  "\u0120Spe": 2818,
  "uk": 2819,
  "\u0120front": 2820,
  "\u0120Pat": 2821,
  "nel": 2822,
  "\u0120situ": 2823,
  "\u0120lay": 2824,
  "\u0120Museum": 2825,
  "\u0120products": 2826,
  "\u0120destroy": 2827,
  "ha": 2828,
  "rative": 2829,
  "\u0120born": 2830,
  "porary": 2831,
  "\u0120placed": 2832,
  "\u0120sett": 2833,
  "\u0120occup": 2834,
  "\u0120gun": 2835,
  "istics": 2836,
  "\u0120alc": 2837,
  "abit": 2838,
  "\u0120commit": 2839,
  "\u0120Qu": 2840,
  "\u0120gold": 2841,
  "\u0120Albert": 2842,
  "\u0120elected": 2843,
  "\u0120separate": 2844,
  "\u0120188": 2845,
  "\u0120phot": 2846,
  "iter": 2847,
  "agn": 2848,
  "\u0120sequ": 2849,
  "\u0120Another": 2850,
  "\u0120acqu": 2851,
  "field": 2852,
  "\u0120eight": 2853,
  "\u0120studies": 2854,
  "\u01202017": 2855,
  "\u0120sil": 2856,
  "\u0120length": 2857,
  "\u0120Cons": 2858,
  "ishop": 2859,
  "ios": 2860,
  "\u0120sal": 2861,
  "aint": 2862,
  "\u0120multiple": 2863,
  "ault": 2864,
  "\u0120living": 2865,
  "\u0120My": 2866,
  "\u0120construction": 2867,
  "respond": 2868,
  "\u0120But": 2869,
  "\u0120operations": 2870,
  "\u01202020": 2871,
  "\u0120discuss": 2872,
  "iences": 2873,
  "\u0120Sam": 2874,
  "throp": 2875,
  "\u0120islands": 2876,
  "unar": 2877,
  "\u0120alle": 2878,
  "onic": 2879,
  "rick": 2880,
  "\u0120Islands": 2881,
  "\u0120functions": 2882,
  "isation": 2883,
  "ago": 2884,
  "see": 2885,
  "\u0120proposed": 2886,
  "\u0120originally": 2887,
  "\u0120Apple": 2888,
  "\u0120Budd": 2889,
  "\u0120response": 2890,
  "\u0120document": 2891,
  "\u0120Congress": 2892,
  "\u0120cut": 2893,
  "\u0120working": 2894,
  "\u0120metal": 2895,
  "\u0120troops": 2896,
  "\u0120187": 2897,
  "\u0120board": 2898,
  "oe": 2899,
  "\u0120Eastern": 2900,
  "\u0120largely": 2901,
  "\u0120network": 2902,
  "\u0120beginning": 2903,
  "ky": 2904,
  "\u0120transl": 2905,
  "\u0120sources": 2906,
  "\u0120tax": 2907,
  "\u01202004": 2908,
  "\u0120rules": 2909,
  "\u0120College": 2910,
  "\u0120greater": 2911,
  "ements": 2912,
  "\u0120rap": 2913,
  "\u0120Islam": 2914,
  "\u0120units": 2915,
  "ancial": 2916,
  "obal": 2917,
  "rus": 2918,
  "izing": 2919,
  "\u01202001": 2920,
  "oz": 2921,
  "\u0120technology": 2922,
  "\u0120policy": 2923,
  "year": 2924,
  "\u0120hit": 2925,
  "\u01202016": 2926,
  "\u0120properties": 2927,
  "\u0120flight": 2928,
  "\u012024": 2929,
  "\u0120numerous": 2930,
  "\u0120economy": 2931,
  "\u0120schools": 2932,
  "rel": 2933,
  "\u0120First": 2934,
  "ivity": 2935,
  "\u0120discovered": 2936,
  "\u0120future": 2937,
  "\u0120methods": 2938,
  "\u0120magn": 2939,
  "\u0120adopted": 2940,
  "\u0120points": 2941,
  "'t": 2942,
  "pected": 2943,
  "\u0120unit": 2944,
  "\u0120divided": 2945,
  "\u0120creat": 2946,
  "\u0120below": 2947,
  "\u0120Dep": 2948,
  "\u0120Gold": 2949,
  "\u0120seven": 2950,
  "\u0120color": 2951,
  "\u0120review": 2952,
  "\u0120Gro": 2953,
  "\u0120address": 2954,
  "\u0120surround": 2955,
  "anned": 2956,
  "\u0120saf": 2957,
  "\u0120plants": 2958,
  "ready": 2959,
  "embly": 2960,
  "jan": 2961,
  "\u0120Old": 2962,
  "\u0120understand": 2963,
  "\u0120office": 2964,
  "arent": 2965,
  "\u0120Afghan": 2966,
  "ech": 2967,
  "isl": 2968,
  "\u0120better": 2969,
  "\u0120analysis": 2970,
  "aughter": 2971,
  "\u0120sac": 2972,
  "aged": 2973,
  "airs": 2974,
  "\u0120Batman": 2975,
  "\u0120highest": 2976,
  "\u0120look": 2977,
  "ili": 2978,
  "\u0120create": 2979,
  "\u0120give": 2980,
  "\u0120Je": 2981,
  "\u0120Island": 2982,
  "\u0120Associ": 2983,
  "\u0120growth": 2984,
  "\u0120Academ": 2985,
  "\u0120bound": 2986,
  "\u0120Red": 2987,
  "ients": 2988,
  "\u0120threat": 2989,
  "onst": 2990,
  "\u0120recent": 2991,
  "\u0120implement": 2992,
  "\u0120performed": 2993,
  "\u0120Scott": 2994,
  "axim": 2995,
  "nd": 2996,
  "\u0120sem": 2997,
  "\u0120categ": 2998,
  "\u0120via": 2999,
  "\u0120correspond": 3000,
  "omy": 3001,
  "\u0120gas": 3002,
  "\u0120oil": 3003,
  "\u0120epis": 3004,
  "curity": 3005,
  "time": 3006,
  "\u0120society": 3007,
  "\u0120Histor": 3008,
  "\u0120cust": 3009,
  "orial": 3010,
  "\u0120concent": 3011,
  "aling": 3012,
  "rying": 3013,
  "\u01202018": 3014,
  "\u0120emb": 3015,
  "\u0120idea": 3016,
  "men": 3017,
  "rim": 3018,
  "\u01202015": 3019,
  "\u0120heav": 3020,
  "\u0120centuries": 3021,
  "spe": 3022,
  "now": 3023,
  "\u0120minor": 3024,
  "\u0120Spanish": 3025,
  "\u0120hous": 3026,
  "osing": 3027,
  "utch": 3028,
  "\u0120vill": 3029,
  "17": 3030,
  "met": 3031,
  "\u0120highly": 3032,
  "\u0120supported": 3033,
  "ension": 3034,
  "na": 3035,
  "\u0120Mal": 3036,
  "\u0120cells": 3037,
  "\u0120farm": 3038,
  "\u0120ships": 3039,
  "\u0120media": 3040,
  "\u0120shown": 3041,
  "\u0120students": 3042,
  "\u0120Henry": 3043,
  "\u0120dri": 3044,
  "ext": 3045,
  "\u0120Jewish": 3046,
  "\u0120compon": 3047,
  "ferred": 3048,
  "\u0120laws": 3049,
  "\u0120lab": 3050,
  "\u0120loss": 3051,
  "\u0120cannot": 3052,
  "\u0120training": 3053,
  ".)": 3054,
  "\u0120Bu": 3055,
  "\u0120already": 3056,
  "olved": 3057,
  "\u0120stage": 3058,
  "30": 3059,
  "anc": 3060,
  "aring": 3061,
  "\u0120latter": 3062,
  "\u0120mathemat": 3063,
  "\u0120drug": 3064,
  "\u0120Mass": 3065,
  "rane": 3066,
  "\u0120release": 3067,
  "\u0120river": 3068,
  "\u0120relatively": 3069,
  "\u0120hor": 3070,
  "\u0120rate": 3071,
  "ampions": 3072,
  "pro": 3073,
  "\u0120wind": 3074,
  "icated": 3075,
  "\u0120script": 3076,
  "\u0120additional": 3077,
  "west": 3078,
  "\u0120wall": 3079,
  "gebra": 3080,
  "\u0120plant": 3081,
  "\u0120cred": 3082,
  "\u0120pun": 3083,
  "\u0120Jack": 3084,
  "\u0120immedi": 3085,
  "\u0120active": 3086,
  "\u0120obtain": 3087,
  "\u0120estim": 3088,
  "\u0120neigh": 3089,
  "\u01202019": 3090,
  "\u0120belief": 3091,
  "enes": 3092,
  "ston": 3093,
  "\u0120Northern": 3094,
  "\u0120ens": 3095,
  "\u01202021": 3096,
  "\u0120western": 3097,
  "erson": 3098,
  "\u0120Rev": 3099,
  "\u0120mention": 3100,
  "\u0120therefore": 3101,
  "\u0120focus": 3102,
  "ked": 3103,
  "hel": 3104,
  "ises": 3105,
  "\u0120enough": 3106,
  "ey": 3107,
  "\u0120cast": 3108,
  "urches": 3109,
  "ider": 3110,
  "\u0120Met": 3111,
  "\u0120detail": 3112,
  "\u0120collection": 3113,
  "bre": 3114,
  "ta": 3115,
  "\u0120Mac": 3116,
  "\u012026": 3117,
  "\u0120prior": 3118,
  "\u0120whom": 3119,
  "\u0120heart": 3120,
  "\u0120agricult": 3121,
  "\u0120conflic": 3122,
  "\u0120alternative": 3123,
  "change": 3124,
  "\u0120univers": 3125,
  "\u0120History": 3126,
  "10": 3127,
  "\u0120wood": 3128,
  "asons": 3129,
  "oles": 3130,
  "\u0120rare": 3131,
  "\u0120medic": 3132,
  "\u0120Japanese": 3133,
  "\u0120Net": 3134,
  "\u0120primarily": 3135,
  "\u0120Smith": 3136,
  "eds": 3137,
  "omp": 3138,
  "omer": 3139,
  "unity": 3140,
  "\u0120Hall": 3141,
  "\u0120performance": 3142,
  "\u0120Middle": 3143,
  "odies": 3144,
  "\u0120Alexand": 3145,
  "burg": 3146,
  "part": 3147,
  "\u0120birth": 3148,
  "aches": 3149,
  "\u0120Jer": 3150,
  "\u0120path": 3151,
  "cont": 3152,
  "\u0120scholars": 3153,
  "cher": 3154,
  "ointed": 3155,
  "\u0120changed": 3156,
  "ithm": 3157,
  "ords": 3158,
  "\u0120wife": 3159,
  "\u0120()": 3160,
  "\u0120Rad": 3161,
  "\u0120Que": 3162,
  "\u0120counter": 3163,
  "\u0120citiz": 3164,
  "\u0120Law": 3165,
  "\u0120III": 3166,
  "\u0120independence": 3167,
  "\u0120Bal": 3168,
  "\u0120Bell": 3169,
  "\u0120bur": 3170,
  "\u0120keep": 3171,
  "\u0120suggested": 3172,
  "fficient": 3173,
  "\u01202003": 3174,
  "\u0120potential": 3175,
  "OS": 3176,
  "war": 3177,
  "\u0120done": 3178,
  "\u0120display": 3179,
  "\u0120memory": 3180,
  "\u0120represented": 3181,
  "\u0120property": 3182,
  "\u0120get": 3183,
  "\u0120contrast": 3184,
  "\u01201999": 3185,
  "\u0120basis": 3186,
  "\u0120activity": 3187,
  "\u0120psych": 3188,
  "\u0120Vir": 3189,
  "\u0120reached": 3190,
  "olk": 3191,
  "ij": 3192,
  "\u0120slow": 3193,
  "\u0120Big": 3194,
  "reng": 3195,
  "\u0120location": 3196,
  "\u0120prec": 3197,
  "inn": 3198,
  "\u0120Italy": 3199,
  "\u0120Ze": 3200,
  "ls": 3201,
  "aled": 3202,
  "\u0120Award": 3203,
  "ift": 3204,
  "\u0120Wash": 3205,
  "\u0120you": 3206,
  "\u0120consum": 3207,
  "\u0120center": 3208,
  "\u0120esc": 3209,
  "\u0120issue": 3210,
  "\u0120Cat": 3211,
  "igen": 3212,
  "owers": 3213,
  "\u0120Pri": 3214,
  "\u0120spread": 3215,
  "\u0120quick": 3216,
  "\u0120levels": 3217,
  "\u0120pressure": 3218,
  "\u0120Sen": 3219,
  "vert": 3220,
  "\u0120antib": 3221,
  "\u0120claimed": 3222,
  "\u0120atom": 3223,
  "\u0120ship": 3224,
  "\u0120expans": 3225,
  "\u0120enter": 3226,
  "\u0120average": 3227,
  "\u0120ever": 3228,
  "umn": 3229,
  "pped": 3230,
  "\u0120status": 3231,
  ");": 3232,
  "tt": 3233,
  "\u0120hyp": 3234,
  "ulations": 3235,
  "opp": 3236,
  "\u0120noted": 3237,
  "\u0120fell": 3238,
  "lected": 3239,
  "\u0120Sl": 3240,
  "uments": 3241,
  "\u0120diss": 3242,
  "198": 3243,
  "\u0120incor": 3244,
  "\u0120settle": 3245,
  "back": 3246,
  "osaur": 3247,
  "\u0120Bulg": 3248,
  "cles": 3249,
  "\u0120contains": 3250,
  "\u0120whole": 3251,
  "\u0120sens": 3252,
  "\u0120Val": 3253,
  "\u0120measure": 3254,
  "\u0120card": 3255,
  "itors": 3256,
  "\u0120mole": 3257,
  "\u0120Im": 3258,
  "\u0120Wall": 3259,
  "\u01202002": 3260,
  "\u0120pie": 3261,
  "\u0120hun": 3262,
  "\u0120centre": 3263,
  "\u0120blue": 3264,
  "\u0120mainly": 3265,
  "lines": 3266,
  "\u0120carried": 3267,
  "\u01201950": 3268,
  "ging": 3269,
  "\u0120intended": 3270,
  "\u0120objects": 3271,
  "\u0120materials": 3272,
  "\u0120draw": 3273,
  "\u0120nation": 3274,
  "\u0120extreme": 3275,
  "\u0120matter": 3276,
  "\u0120Armen": 3277,
  "\u0120opened": 3278,
  "\u0120forced": 3279,
  "\u0120appears": 3280,
  "edy": 3281,
  "\u0120experience": 3282,
  "\u0120career": 3283,
  "\u0120degree": 3284,
  "reland": 3285,
  "\u0120sense": 3286,
  "cean": 3287,
  "\u0120provides": 3288,
  "\u0120initial": 3289,
  "\u0120behavior": 3290,
  "\u0120Ro": 3291,
  "\u0120kind": 3292,
  "\u0120Scot": 3293,
  "\u0120financial": 3294,
  "\u0120Arabic": 3295,
  "\u0120Academy": 3296,
  "\u0120AS": 3297,
  "\u0120scientific": 3298,
  "\u0120Washington": 3299,
  "ee": 3300,
  "onia": 3301,
  "\u0120presence": 3302,
  "\u0120break": 3303,
  "\u0120Richard": 3304,
  "amm": 3305,
  "\u0120Fre": 3306,
  "\u0120contem": 3307,
  "\u0120professional": 3308,
  "\u0120Thomas": 3309,
  "\u0120coin": 3310,
  "\u0120nearly": 3311,
  "\u0120Ca": 3312,
  "\u0120Society": 3313,
  "IC": 3314,
  "\u0120conqu": 3315,
  "\u0120leader": 3316,
  "\u0120football": 3317,
  "\u0120peace": 3318,
  "\u0120weap": 3319,
  "\u0120shows": 3320,
  "\u0120issues": 3321,
  "ias": 3322,
  "ellig": 3323,
  "\u0120influenced": 3324,
  "head": 3325,
  "\u0120impact": 3326,
  "\u0120rapid": 3327,
  "\u0120soon": 3328,
  "alian": 3329,
  "\u0120makes": 3330,
  "\u0120Ter": 3331,
  "\u0120Dutch": 3332,
  "estival": 3333,
  "\u0120Oly": 3334,
  "rupt": 3335,
  "NA": 3336,
  "erve": 3337,
  "\u0120Ireland": 3338,
  "osis": 3339,
  "\u0120i": 3340,
  "\u0120question": 3341,
  "\u0120More": 3342,
  "\u0120pay": 3343,
  "imal": 3344,
  "\u0120resulting": 3345,
  "\u0120emp": 3346,
  "\u0120demonst": 3347,
  "\u0120block": 3348,
  "ournal": 3349,
  "\u0120Parliament": 3350,
  "\u0120federal": 3351,
  "\u0120algebra": 3352,
  "\u0120algor": 3353,
  "\u0120ded": 3354,
  "\u0120eastern": 3355,
  "\u0120creation": 3356,
  "\u0120Bak": 3357,
  "\u0120Follow": 3358,
  "\u0120amb": 3359,
  "\u0120improve": 3360,
  "\u0120joined": 3361,
  "\u0120Inter": 3362,
  "\u0120La": 3363,
  "\u0120experiment": 3364,
  "\u0120earliest": 3365,
  "\u0120ethn": 3366,
  "\u0120Olymp": 3367,
  "cks": 3368,
  "hood": 3369,
  "ply": 3370,
  "\u0120worked": 3371,
  "\u0120Force": 3372,
  "\u0120era": 3373,
  "ocratic": 3374,
  "\u0120machine": 3375,
  "\u0120BBC": 3376,
  "\u0120streng": 3377,
  "\u0120ability": 3378,
  "\u0120probably": 3379,
  "erc": 3380,
  "\u0120bor": 3381,
  "\u0120inj": 3382,
  "\u0120Int": 3383,
  "iance": 3384,
  "\u0120spirit": 3385,
  "\u0120Americans": 3386,
  "\u0120temperature": 3387,
  "actions": 3388,
  "\u0120passed": 3389,
  "\u0120Cambridge": 3390,
  "rument": 3391,
  "\u0120table": 3392,
  "\u0120wat": 3393,
  "\u0120Association": 3394,
  "heast": 3395,
  "\u0120Cyp": 3396,
  "\u0120Peter": 3397,
  "\u0120184": 3398,
  "\u0120humans": 3399,
  "\u0120poor": 3400,
  "\u0120Common": 3401,
  "\u0120Russia": 3402,
  "\u0120sus": 3403,
  "\u0120mom": 3404,
  "iform": 3405,
  "\u0120Vict": 3406,
  "\u0120Bec": 3407,
  "\u0120Muslim": 3408,
  "\u0120happ": 3409,
  "\u0120Cap": 3410,
  "\u0120Mart": 3411,
  "\u0120true": 3412,
  "\u0120effective": 3413,
  "iques": 3414,
  "\u0120letter": 3415,
  "\u0120individuals": 3416,
  "lem": 3417,
  "\u0120heavy": 3418,
  "\u0120resour": 3419,
  "\u0120thous": 3420,
  "\u012022": 3421,
  "\u0120decided": 3422,
  "\u0120protect": 3423,
  "\u0120Southern": 3424,
  "\u0120promin": 3425,
  "\u0120regional": 3426,
  "\u0120Michael": 3427,
  "SA": 3428,
  "ares": 3429,
  "\u0120Ash": 3430,
  "\u0120flu": 3431,
  "\u0120broadcast": 3432,
  "board": 3433,
  "12": 3434,
  "use": 3435,
  "\u0120Lou": 3436,
  "\u0120rank": 3437,
  "astic": 3438,
  "\u0120values": 3439,
  "\u0120needed": 3440,
  "\u0120tend": 3441,
  "\u0120division": 3442,
  "\u0120Following": 3443,
  "vin": 3444,
  "ont": 3445,
  "\u0120assum": 3446,
  "\u0120corre": 3447,
  "\u0120forest": 3448,
  "ground": 3449,
  "riage": 3450,
  "\u0120Ox": 3451,
  "\u0120authority": 3452,
  "\u0120Library": 3453,
  "uda": 3454,
  "\u0120Jews": 3455,
  "itutions": 3456,
  "\u0120Del": 3457,
  "ibly": 3458,
  "tee": 3459,
  "\u0120pattern": 3460,
  "aith": 3461,
  "water": 3462,
  "\u0120Bron": 3463,
  "igation": 3464,
  "\u0120Kn": 3465,
  "\u0120Despite": 3466,
  "idents": 3467,
  "\u0120soldiers": 3468,
  "\u0120frequently": 3469,
  "oor": 3470,
  "tical": 3471,
  "\u0120inh": 3472,
  "\u0120Bill": 3473,
  "\u0120search": 3474,
  "\u0120becoming": 3475,
  "\u0120Because": 3476,
  "\u0120tree": 3477,
  "ico": 3478,
  "\u0120Aut": 3479,
  "verse": 3480,
  "\u0120composed": 3481,
  "\u0120medical": 3482,
  "\u0120basic": 3483,
  "\u0120Liber": 3484,
  "\u0120decision": 3485,
  "\u0120argued": 3486,
  "eder": 3487,
  "\u0120Stud": 3488,
  "ampionship": 3489,
  "ville": 3490,
  "igr": 3491,
  "\u0120step": 3492,
  "\u0120week": 3493,
  "\u0120contract": 3494,
  "\u0120Two": 3495,
  "\u01201998": 3496,
  "\u0120behind": 3497,
  "inated": 3498,
  "\u0120Both": 3499,
  "\u0120famous": 3500,
  "\u0120Institute": 3501,
  "\u0120expansion": 3502,
  "\u0120Japan": 3503,
  "oura": 3504,
  "irm": 3505,
  "\u0120daughter": 3506,
  "oud": 3507,
  "raction": 3508,
  "\u0120attacks": 3509,
  "zil": 3510,
  "\u0120cry": 3511,
  "\u0120Aber": 3512,
  "\u0120playing": 3513,
  "\u01202022": 3514,
  "\u0120taking": 3515,
  "\u0120paper": 3516,
  "\u0120sexual": 3517,
  "\u0120lunar": 3518,
  "asty": 3519,
  "\u0120spect": 3520,
  "\u0120letters": 3521,
  "\u0120Company": 3522,
  "\u0120ult": 3523,
  "\u012027": 3524,
  "\u0120Class": 3525,
  "\u0120ir": 3526,
  "itz": 3527,
  "\u0120Pre": 3528,
  "undred": 3529,
  "\u0120...": 3530,
  "\u0120Ir": 3531,
  "\u0120accepted": 3532,
  "\u0120link": 3533,
  "\u0120Bank": 3534,
  "\u0120enem": 3535,
  "\u0120attrib": 3536,
  "\u0120necessary": 3537,
  "\u0120risk": 3538,
  "\u01200": 3539,
  "\u0120bacter": 3540,
  "\u0120money": 3541,
  "\u0120vary": 3542,
  "onds": 3543,
  "century": 3544,
  "\u0120married": 3545,
  "\u0120Anglic": 3546,
  "\u0120calcul": 3547,
  "\u0120featured": 3548,
  "den": 3549,
  "rog": 3550,
  "ressed": 3551,
  "\u0120u": 3552,
  "\u0120Rome": 3553,
  "\u0120yet": 3554,
  "\u0120Second": 3555,
  "\u0120avoid": 3556,
  "\u0120failed": 3557,
  "ka": 3558,
  "ras": 3559,
  "enic": 3560,
  "\u0120date": 3561,
  "otes": 3562,
  "\u0120Moon": 3563,
  "\u0120deep": 3564,
  "ested": 3565,
  "\u012023": 3566,
  "rown": 3567,
  "rief": 3568,
  "izations": 3569,
  "\u0120appointed": 3570,
  "\u0120allows": 3571,
  "\u0120identified": 3572,
  "\u0120activities": 3573,
  "eties": 3574,
  "\u0120programs": 3575,
  "\u0120cand": 3576,
  "\u0120ey": 3577,
  "\u0120Fl": 3578,
  "\u0120emphas": 3579,
  "win": 3580,
  "\u0120native": 3581,
  "\u0120aspect": 3582,
  "\u0120inn": 3583,
  "\u0120burn": 3584,
  "\u0120Under": 3585,
  "\u0120Arist": 3586,
  "\u0120operation": 3587,
  "\u0120alcoh": 3588,
  "\u0120our": 3589,
  "197": 3590,
  "\u0120System": 3591,
  "bed": 3592,
  "rical": 3593,
  "\u0120That": 3594,
  "\u012050": 3595,
  "\u0120synthe": 3596,
  "\u0120launch": 3597,
  "\u0120micro": 3598,
  "vey": 3599,
  "uman": 3600,
  "\u0120round": 3601,
  "\u0120instrument": 3602,
  "annel": 3603,
  "ygen": 3604,
  "\u0120mis": 3605,
  "\u0120chief": 3606,
  "\u0120buildings": 3607,
  "\u0120Canadian": 3608,
  "\u0120Berlin": 3609,
  "\u0120responsible": 3610,
  "ully": 3611,
  "\u0120Dis": 3612,
  "\u0120applied": 3613,
  "\u0120completed": 3614,
  "\u0120previously": 3615,
  "unicip": 3616,
  "\u0120knowledge": 3617,
  "bour": 3618,
  "ned": 3619,
  "\u0120consequ": 3620,
  "\u0120churches": 3621,
  "azine": 3622,
  "comp": 3623,
  "\u0120\u0120\u0120\u0120": 3624,
  "iated": 3625,
  "\u0120discover": 3626,
  "\u0120combined": 3627,
  "\u0120takes": 3628,
  "alle": 3629,
  "ola": 3630,
  "\u0120Minister": 3631,
  "writ": 3632,
  "wide": 3633,
  "yond": 3634,
  "\u0120spl": 3635,
  "itation": 3636,
  "\u0120reform": 3637,
  "\u0120graph": 3638,
  "\u0120Dan": 3639,
  "\u0120sec": 3640,
  "\u0120constant": 3641,
  "\u0120possess": 3642,
  ",\"": 3643,
  "\u0120Tex": 3644,
  "\u0120alph": 3645,
  "\u0120section": 3646,
  "\u0120Street": 3647,
  "crete": 3648,
  "\u0120ideas": 3649,
  "\u0120disease": 3650,
  "\u0120ut": 3651,
  "ented": 3652,
  "\u0120chall": 3653,
  "\u0120consists": 3654,
  "\u0120Brazil": 3655,
  "icted": 3656,
  "\u0120dr": 3657,
  "\u0120Beng": 3658,
  "\u0120distingu": 3659,
  "\u0120Columbia": 3660,
  "\u0120brain": 3661,
  "\u0120compared": 3662,
  "\u0120techniques": 3663,
  "ship": 3664,
  "\u0120collect": 3665,
  "\u0120mix": 3666,
  "\u0120literature": 3667,
  "ien": 3668,
  "\u0120bomb": 3669,
  "\u0120dram": 3670,
  "\u0120decre": 3671,
  "\u0120Thus": 3672,
  "\u0120formal": 3673,
  "\u0120directed": 3674,
  "\u0120Johnson": 3675,
  "\u0120initially": 3676,
  "\u0120derived": 3677,
  "van": 3678,
  "itan": 3679,
  "\u0120retain": 3680,
  "odox": 3681,
  "\u0120Wil": 3682,
  "perial": 3683,
  "\u0120district": 3684,
  "\u0120Athens": 3685,
  "\u0120bra": 3686,
  "\u0120face": 3687,
  "\u0120examples": 3688,
  "\u0120rise": 3689,
  "\u0120Croat": 3690,
  "\u0120harm": 3691,
  "\u0120Italian": 3692,
  "\u0120simple": 3693,
  "\u0120aim": 3694,
  "enth": 3695,
  "\u0120reject": 3696,
  "eles": 3697,
  "\u0120university": 3698,
  "\u0120conserv": 3699,
  "\u012040": 3700,
  "\u0120autom": 3701,
  "\u0120Prot": 3702,
  "\u0120philosophy": 3703,
  "\u0120incorpor": 3704,
  "wise": 3705,
  "\u0120birds": 3706,
  "\u0120beg": 3707,
  "ocal": 3708,
  "illed": 3709,
  "\u01201997": 3710,
  "edom": 3711,
  "\u0120Serv": 3712,
  "\u0120Def": 3713,
  "\u0120Center": 3714,
  "\u0120reduced": 3715,
  "\u0120citizens": 3716,
  "oids": 3717,
  "\u0120TV": 3718,
  "\u0120appearance": 3719,
  "tles": 3720,
  "\u0120Alf": 3721,
  "\u01201996": 3722,
  "ini": 3723,
  "\u0120Av": 3724,
  "\u0120Sever": 3725,
  "\u0120conne": 3726,
  "...": 3727,
  "mark": 3728,
  "\u0120Sal": 3729,
  "\u0120Bre": 3730,
  "\u0120speed": 3731,
  "\u0120communication": 3732,
  "\u0120theore": 3733,
  "\u0120animal": 3734,
  "\u0120Ke": 3735,
  "\u0120remaining": 3736,
  "force": 3737,
  "\u0120benef": 3738,
  "\u0120AM": 3739,
  "\u0120Azer": 3740,
  "\u0120Hill": 3741,
  "\u012028": 3742,
  "\u0120Nor": 3743,
  "\u0120communities": 3744,
  "\u0120quickly": 3745,
  "oln": 3746,
  "urder": 3747,
  "\u0120Fil": 3748,
  "\u0120Fore": 3749,
  "\u0120Navy": 3750,
  "\u0120approximately": 3751,
  "sis": 3752,
  "\u0120mess": 3753,
  "\u0120Mat": 3754,
  "\u0120Jose": 3755,
  "\u0120speech": 3756,
  "\u0120friend": 3757,
  "pr": 3758,
  "\u0120phen": 3759,
  "\u0120hours": 3760,
  "\u0120Leg": 3761,
  "\u0120continue": 3762,
  "\u0120definition": 3763,
  "\u0120screen": 3764,
  "bai": 3765,
  "\u0120Mem": 3766,
  "\u0120secret": 3767,
  "\u0120device": 3768,
  "\u0120Mex": 3769,
  "\u0120arrang": 3770,
  "\u0120assist": 3771,
  "\u0120launched": 3772,
  "\u0120Government": 3773,
  "baijan": 3774,
  "zz": 3775,
  "\u0120internal": 3776,
  "\u0120Grand": 3777,
  "\u0120compar": 3778,
  "\u0120Chap": 3779,
  "izes": 3780,
  "cluding": 3781,
  "rone": 3782,
  "\u0120models": 3783,
  "\u0120signed": 3784,
  "rival": 3785,
  "\u0120controvers": 3786,
  "hy": 3787,
  "\u0120Civil": 3788,
  "emis": 3789,
  "\u0120Wales": 3790,
  "\u0120formation": 3791,
  "\u0120organization": 3792,
  "11": 3793,
  "arc": 3794,
  "elt": 3795,
  "\u0120orbit": 3796,
  "\u0120subs": 3797,
  "stein": 3798,
  "25": 3799,
  "can": 3800,
  "oned": 3801,
  "\u0120Bible": 3802,
  "\u0120alk": 3803,
  "\u0120rot": 3804,
  "\u0120purpose": 3805,
  "\u0120fif": 3806,
  "\u0120lived": 3807,
  "\u0120Mary": 3808,
  "thodox": 3809,
  "\u0120approach": 3810,
  "mitted": 3811,
  "wor": 3812,
  "\u0120anthrop": 3813,
  "\u0120repe": 3814,
  "ela": 3815,
  "\u0120Ann": 3816,
  "\u0120driv": 3817,
  "\u0120Greece": 3818,
  "\u0120night": 3819,
  "\u0120sets": 3820,
  "\u0120White": 3821,
  "\u0120equal": 3822,
  "\u0120claims": 3823,
  "\u0120devices": 3824,
  "\u0120powers": 3825,
  "rier": 3826,
  "\u0120Lord": 3827,
  "\u0120weight": 3828,
  "\u0120occurred": 3829,
  "\u0120Azerbaijan": 3830,
  "uge": 3831,
  "\u0120structures": 3832,
  "aught": 3833,
  "\u0120bring": 3834,
  "\u0120middle": 3835,
  "\u0120Pac": 3836,
  "\u0120dead": 3837,
  "ographic": 3838,
  "\u0120Barb": 3839,
  "\u0120industrial": 3840,
  "\u0120observed": 3841,
  "kin": 3842,
  "\u0120council": 3843,
  "\u0120ple": 3844,
  "\u0120Rec": 3845,
  "\u0120Corn": 3846,
  "\u0120Their": 3847,
  "ado": 3848,
  "ifically": 3849,
  "\u0120rat": 3850,
  "\u0120learn": 3851,
  "orders": 3852,
  "\u0120road": 3853,
  "\u0120allowing": 3854,
  "\u0120favor": 3855,
  "\u0120Atlantic": 3856,
  "onn": 3857,
  "\u0120pil": 3858,
  "\u0120places": 3859,
  "\u0120simply": 3860,
  "\u0120Spain": 3861,
  "incoln": 3862,
  "\u0120Prince": 3863,
  "\u0120fully": 3864,
  "\u0120Bor": 3865,
  "\u0120global": 3866,
  "\u0120offered": 3867,
  "iring": 3868,
  "\u0120direction": 3869,
  "\u0120summer": 3870,
  "\u0120reve": 3871,
  "\u0120Best": 3872,
  "unk": 3873,
  "ube": 3874,
  "\u0120ec": 3875,
  "\u0120suc": 3876,
  "obile": 3877,
  "\u0120refers": 3878,
  "\u0120declared": 3879,
  "\u0120Victor": 3880,
  "15": 3881,
  "\u0120bal": 3882,
  "\u0120Bos": 3883,
  "\u01201994": 3884,
  "\u0120female": 3885,
  "\u0120ways": 3886,
  "\u0120recon": 3887,
  "\u0120Lincoln": 3888,
  "\u0120depend": 3889,
  "\u0120classical": 3890,
  "\u0120presented": 3891,
  "aska": 3892,
  "ilies": 3893,
  "\u0120climate": 3894,
  "\u0120extended": 3895,
  "\u0120entered": 3896,
  "\u0120interpret": 3897,
  "ya": 3898,
  "\u0120Sol": 3899,
  "ipment": 3900,
  "\u0120shot": 3901,
  "\u0120impl": 3902,
  "\u0120records": 3903,
  "\u0120turned": 3904,
  "enh": 3905,
  "cell": 3906,
  "elled": 3907,
  "earch": 3908,
  "\u0120despite": 3909,
  "\u0120ancest": 3910,
  "\u0120songs": 3911,
  "\u0120spoken": 3912,
  "\u0120resistance": 3913,
  "\u0120newsp": 3914,
  "\u0120serious": 3915,
  "\u0120ordered": 3916,
  "\u0120Louis": 3917,
  "ooth": 3918,
  "\u0120male": 3919,
  "aded": 3920,
  "\u0120fort": 3921,
  "ipl": 3922,
  "\u0120arri": 3923,
  "\u0120clos": 3924,
  "book": 3925,
  "oured": 3926,
  "amin": 3927,
  "\u0120Each": 3928,
  "ructed": 3929,
  "\u0120musical": 3930,
  "\u0120reference": 3931,
  "\u0120interview": 3932,
  "\u0120positive": 3933,
  "\u0120Add": 3934,
  "\u0120teams": 3935,
  "\u0120Portug": 3936,
  "\u0120moment": 3937,
  "inet": 3938,
  "atre": 3939,
  "rod": 3940,
  "\u0120closed": 3941,
  "\u0120Ark": 3942,
  "\u01201995": 3943,
  "\u0120Shah": 3944,
  "\u0120Group": 3945,
  "16": 3946,
  "with": 3947,
  "\u0120rein": 3948,
  "igu": 3949,
  "\u0120Elect": 3950,
  "\u0120deal": 3951,
  "\u0120exhib": 3952,
  "sec": 3953,
  "\u0120Ach": 3954,
  "\u0120hundred": 3955,
  "aging": 3956,
  "\u0120prison": 3957,
  "\u0120victory": 3958,
  "CA": 3959,
  "\u0120cru": 3960,
  "quar": 3961,
  "\u0120Chic": 3962,
  "\u0120negative": 3963,
  "\u0120applications": 3964,
  "oes": 3965,
  "\u0120Tra": 3966,
  "umin": 3967,
  "\u0120Div": 3968,
  "\u0120183": 3969,
  "\u0120ended": 3970,
  "\u0120nuclear": 3971,
  "las": 3972,
  "iments": 3973,
  "ulate": 3974,
  "\u0120share": 3975,
  "\u0120Atari": 3976,
  "\u0120occurs": 3977,
  "\u0120condition": 3978,
  "\u0120Belg": 3979,
  "\u0120brief": 3980,
  "\u0120Sun": 3981,
  "uls": 3982,
  "estic": 3983,
  "\u0120effic": 3984,
  "\u0120opposed": 3985,
  "\u0120Franc": 3986,
  "\u0120Brown": 3987,
  "\u0120distribution": 3988,
  "\u0120virt": 3989,
  "\u0120binary": 3990,
  "\u0120Ah": 3991,
  "imens": 3992,
  "\u0120Mill": 3993,
  "\u0120Jes": 3994,
  "\u0120serve": 3995,
  "\u0120sport": 3996,
  "\u0120pal": 3997,
  "\u0120Rob": 3998,
  "\u0120Later": 3999
}