{
  "version": "1.0",
  "truncation": null,
  "padding": null,
  "added_tokens": [
    {
      "id": 0,
      "content": "[PAD]",
      "single_word": false,
      "lstrip": false,
      "rstrip": false,
      "normalized": false,
      "special": true
    },
    {
      "id": 1,
      "content": "[UNK]",
      "single_word": false,
      "lstrip": false,
      "rstrip": false,
      "normalized": false,
      "special": true
    },
    {
      "id": 2,
      "content": "[CLS]",
      "single_word": false,
      "lstrip": false,
      "rstrip": false,
      "normalized": false,
      "special": true
    },
    {
      "id": 3,
      "content": "[SEP]",
      "single_word": false,
      "lstrip": false,
      "rstrip": false,
      "normalized": false,
      "special": true
    },
    {
      "id": 4,
      "content": "[MASK]",
      "single_word": false,
      "lstrip": false,
      "rstrip": false,
      "normalized": false,
      "special": true
    }
  ],
  "normalizer": {
    "type": "NFKC"
  },
  "pre_tokenizer": {
    "type": "ByteLevel",
    "add_prefix_space": true,
    "trim_offsets": true,
    "use_regex": true
  },
  "post_processor": null,
  "decoder": {
    "type": "ByteLevel",
    "add_prefix_space": true,
    "trim_offsets": true,
    "use_regex": true
  },
  "model": {
    "type": "BPE",
    "dropout": null,
    "unk_token": "[UNK]",
    "continuing_subword_prefix": null,
    "end_of_word_suffix": null,
    "fuse_unk": false,
    "byte_fallback": false,
    "ignore_merges": false,
    "vocab": {
      "[PAD]": 0,
      "[UNK]": 1,
      "[CLS]": 2,
      "[SEP]": 3,
      "[MASK]": 4,
      "!": 5,
      "\"": 6,
      "'": 7,
      "(": 8,
      ")": 9,
      ",": 10,
      "-": 11,
      ".": 12,
      "0": 13,
      "1": 14,
      "2": 15,
      "3": 16,
      "4": 17,
      "5": 18,
      "6": 19,
      "7": 20,
      "8": 21,
      "9": 22,
      ":": 23,
      ";": 24,
      "?": 25,
      "A": 26,
      "B": 27,
      "C": 28,
      "D": 29,
      "E": 30,
      "F": 31,
      "G": 32,
      "H": 33,
      "I": 34,
      "J": 35,
      "K": 36,
      "L": 37,
      "M": 38,
      "N": 39,
      "O": 40,
      "P": 41,
      "Q": 42,
      "R": 43,
      "S": 44,
      "T": 45,
      "U": 46,
      "V": 47,
      "W": 48,
      "X": 49,
      "Y": 50,
      "Z": 51,
      "[": 52,
      "]": 53,
      "a": 54,
      "b": 55,
      "c": 56,
      "d": 57,
      "e": 58,
      "f": 59,
      "g": 60,
      "h": 61,
      "i": 62,
      "j": 63,
      "k": 64,
      "l": 65,
      "m": 66,
      "n": 67,
      "o": 68,
      "p": 69,
      "q": 70,
      "r": 71,
      "s": 72,
      "t": 73,
      "u": 74,
      "v": 75,
      "w": 76,
      "x": 77,
      "y": 78,
      "z": 79,
      "ĉ": 80,
      "Ċ": 81,
      "Ġ": 82,
      "Ġt": 83,
      "Ġa": 84,
      "he": 85,
      "in": 86,
      "Ġthe": 87,
      "er": 88,
      "on": 89,
      "re": 90,
      "Ġo": 91,
      "at": 92,
      "Ġs": 93,
      "en": 94,
      "ed": 95,
      "an": 96,
      "is": 97,
      "Ġc": 98,
      "Ġw": 99,
      "es": 100,
      "it": 101,
      "or": 102,
      "Ġof": 103,
      "al": 104,
      "Ġan": 105,
      "Ġb": 106,
      "ar": 107,
      "Ġin": 108,
      "Ġf": 109,
      "Ġp": 110,
      "ic": 111,
      "Ġand": 112,
      "ing": 113,
      "ion": 114,
      "as": 115,
      "ro": 116,
      "Ġm": 117,
      "Ġto": 118,
      "Ġd": 119,
      "le": 120,
      "ĠA": 121,
      "Ġh": 122,
      "ent": 123,
      "ou": 124,
      "ĠT": 125,
      "om": 126,
      "Ġre": 127,
      "st": 128,
      "ly": 129,
      "ct": 130,
      "Ġe": 131,
      "Ġth": 132,
      "Ġl": 133,
      "il": 134,
      "ĠC": 135,
      "Ġn": 136,
      "ĠS": 137,
      "ĠB": 138,
      "ol": 139,
      "ve": 140,
      "us": 141,
      "Ġbe": 142,
      "am": 143,
      "ation": 144,
      "ur": 145,
      "ĠThe": 146,
      "ce": 147,
      "id": 148,
      "Ġis": 149,
      "ch": 150,
      "ad": 151,
      "im": 152,
      "ĠI": 153,
      "Ġas": 154,
      "un": 155,
      "Ġ1": 156,
      "Ġfor": 157,
      "ot": 158,
      "ut": 159,
      "ver": 160,
      "ig": 161,
      "et": 162,
      "Ġg": 163,
      "ir": 164,
      "el": 165,
      "Ġon": 166,
      "ĠM": 167,
      "ul": 168,
      "ter": 169,
      "ith": 170,
      "Ġwas": 171,
      "ow": 172,
      "ra": 173,
      "Ġ(": 174,
      "Ġst": 175,
      "Ġcon": 176,
      "her": 177,
      "Ġwith": 178,
      "ĠP": 179,
      "ist": 180,
      "Ġal": 181,
      "Ġby": 182,
      "Ġthat": 183,
      "ay": 184,
      "ĠH": 185,
      "em": 186,
      "os": 187,
      "Ġwh": 188,
      "ri": 189,
      "th": 190,
      "um": 191,
      "and": 192,
      "Ġpro": 193,
      "od": 194,
      "ers": 195,
      "'s": 196,
      "Ġor": 197,
      "op": 198,
      "ĠR": 199,
      "ĠE": 200,
      "Ġcom": 201,
      "ĠD": 202,
      "Ġare": 203,
      "Ġde": 204,
      "ĠIn": 205,
      "ag": 206,
      "ĠF": 207,
      "est": 208,
      "if": 209,
      "Ġit": 210,
      "ĠG": 211,
      "rom": 212,
      "ac": 213,
      "ĠW": 214,
      "ĠL": 215,
      "Ġsu": 216,
      "ate": 217,
      "Ġ\"": 218,
      "ain": 219,
      "ies": 220,
      "Ġ19": 221,
      "res": 222,
      "ab": 223,
      "Ġat": 224,
      "Ġ2": 225,
      "ity": 226,
      "pe": 227,
      "Ġex": 228,
      "ĠN": 229,
      "Ġfrom": 230,
      "oun": 231,
      "Ġv": 232,
      "Ġhe": 233,
      "se": 234,
      "ud": 235,
      "ive": 236,
      "oc": 237,
      "qu": 238,
      "ment": 239,
      "ant": 240,
      "iv": 241,
      "Ġse": 242,
      "ich": 243,
      "ort": 244,
      "ld": 245,
      "ess": 246,
      "ical": 247,
      "ian": 248,
      "ial": 249,
      "ore": 250,
      "ĠO": 251,
      "art": 252,
      "ĠJ": 253,
      "Ġus": 254,
      "Ġr": 255,
      "Ġun": 256,
      "pp": 257,
      "Ġhis": 258,
      "all": 259,
      "pt": 260,
      "ia": 261,
      "igh": 262,
      "ated": 263,
      "ill": 264,
      "00": 265,
      "ard": 266,
      "Ġwhich": 267,
      "ew": 268,
      "ere": 269,
      "gh": 270,
      "ber": 271,
      "ction": 272,
      "Ġch": 273,
      "ak": 274,
      "ther": 275,
      "ĠU": 276,
      "ge": 277,
      "ave": 278,
      "ost": 279,
      "end": 280,
      "og": 281,
      "Ġwere": 282,
      "ure": 283,
      "Ġnot": 284,
      "ary": 285,
      "cl": 286,
      "ip": 287,
      "ine": 288,
      "Ġpl": 289,
      "ast": 290,
      "ish": 291,
      "Ġle": 292,
      "Ġcomp": 293,
      "ous": 294,
      "per": 295,
      "so": 296,
      "ong": 297,
      "Ġar": 298,
      "du": 299,
      "our": 300,
      "ell": 301,
      "ame": 302,
      "Ġk": 303,
      "rit": 304,
      "Ġhave": 305,
      "ome": 306,
      "av": 307,
      "ĠK": 308,
      "cc": 309,
      "ans": 310,
      "ect": 311,
      "ition": 312,
      "ight": 313,
      "ord": 314,
      "Ġsh": 315,
      "ĠCh": 316,
      "ire": 317,
      "iz": 318,
      "Ġcont": 319,
      "ult": 320,
      "up": 321,
      "Ġint": 322,
      "ide": 323,
      "ub": 324,
      "ear": 325,
      "ff": 326,
      "ry": 327,
      "ap": 328,
      "Ġhas": 329,
      "Ġalso": 330,
      "mer": 331,
      "Ġad": 332,
      "ence": 333,
      "ations": 334,
      "ĠSt": 335,
      "der": 336,
      "ib": 337,
      "ust": 338,
      "ally": 339,
      "Ġhad": 340,
      "Ġwhe": 341,
      "Ġtheir": 342,
      "ack": 343,
      "ign": 344,
      "Ġits": 345,
      "ass": 346,
      "pl": 347,
      "),": 348,
      "Ġab": 349,
      "Ġ20": 350,
      "Ġpart": 351,
      "ue": 352,
      "age": 353,
      "Ġother": 354,
      "Ġbut": 355,
      "Ġres": 356,
      "ang": 357,
      "ĠAn": 358,
      "ould": 359,
      "Ġtr": 360,
      "low": 361,
      "ĠTh": 362,
      "act": 363,
      "Ġcl": 364,
      "ater": 365,
      "ok": 366,
      "clud": 367,
      "ĠAl": 368,
      "Ġcan": 369,
      "fer": 370,
      "are": 371,
      "Ġy": 372,
      "Ġwor": 373,
      "Ġim": 374,
      "ount": 375,
      "ph": 376,
      "vel": 377,
      "Ġdis": 378,
      "Ġen": 379,
      "ie": 380,
      "ru": 381,
      "ory": 382,
      "irst": 383,
      "ree": 384,
      "ates": 385,
      "any": 386,
      "Ġbeen": 387,
      "erm": 388,
      "ĠUn": 389,
      "tern": 390,
      "Ġthis": 391,
      "over": 392,
      "ions": 393,
      "ance": 394,
      "Ġinclud": 395,
      "orm": 396,
      "Ġone": 397,
      "ric": 398,
      "Ġbec": 399,
      "Ġcomm": 400,
      "out": 401,
      "ace": 402,
      "con": 403,
      "Ġfirst": 404,
      "ĠV": 405,
      "own": 406,
      "ime": 407,
      "able": 408,
      "ach": 409,
      "wo": 410,
      "hed": 411,
      "ress": 412,
      "vers": 413,
      "ile": 414,
      "fter": 415,
      "Ġsuch": 416,
      "ugh": 417,
      "ke": 418,
      "Ġused": 419,
      ").": 420,
      "te": 421,
      "port": 422,
      "ĠIt": 423,
      "Ġte": 424,
      "ound": 425,
      "Ġro": 426,
      "land": 427,
      "und": 428,
      "ced": 429,
      "ces": 430,
      "ens": 431,
      "Ġpre": 432,
      "ĠAr": 433,
      "Ġwho": 434,
      "ep": 435,
      "Ġsy": 436,
      "Ġper": 437,
      "ice": 438,
      "Ġspe": 439,
      "ough": 440,
      "Ġcons": 441,
      "erv": 442,
      "lic": 443,
      "Ġall": 444,
      "ren": 445,
      "uring": 446,
      "Ġne": 447,
      "ose": 448,
      "Ġdes": 449,
      "Ġform": 450,
      "Ġag": 451,
      "ors": 452,
      "ational": 453,
      "ari": 454,
      "Ġ200": 455,
      "Ġcent": 456,
      "Ġsp": 457,
      "ron": 458,
      "les": 459,
      "Ġthey": 460,
      "ov": 461,
      "Ġmore": 462,
      "ase": 463,
      "we": 464,
      "Ġev": 465,
      "ĠHe": 466,
      "Ġsc": 467,
      "ism": 468,
      "ents": 469,
      "Ġinto": 470,
      "ite": 471,
      "Ġtwo": 472,
      "Ġmost": 473,
      "ks": 474,
      "ade": 475,
      "ited": 476,
      "ts": 477,
      "Ġj": 478,
      "ied": 479,
      "Ġrec": 480,
      "ular": 481,
      "Ġ201": 482,
      "olog": 483,
      "aw": 484,
      "ative": 485,
      "Ġele": 486,
      "Ġrel": 487,
      "amp": 488,
      "aus": 489,
      "Ġover": 490,
      "reat": 491,
      "Ġme": 492,
      "Ġyear": 493,
      "Ġ18": 494,
      "Ġreg": 495,
      "rib": 496,
      "Ġcol": 497,
      "Ġatt": 498,
      "ĠAs": 499,
      "meric": 500,
      "one": 501,
      "ual": 502,
      "Ġsome": 503,
      "oin": 504,
      "ft": 505,
      "ath": 506,
      "rough": 507,
      "ood": 508,
      "Ġbet": 509,
      "ne": 510,
      "Ġout": 511,
      "Ġgro": 512,
      "wn": 513,
      "Ġnum": 514,
      "Ġthan": 515,
      "ased": 516,
      "ted": 517,
      "ics": 518,
      "Ġafter": 519,
      "oth": 520,
      "Ġapp": 521,
      "Ġam": 522,
      "Ġprodu": 523,
      "ings": 524,
      "Ġgen": 525,
      "ĠThis": 526,
      "form": 527,
      "ĠAmeric": 528,
      "Ġsub": 529,
      "ten": 530,
      "ook": 531,
      "red": 532,
      "Ġkn": 533,
      "iss": 534,
      "ific": 535,
      "ob": 536,
      "ons": 537,
      "Ġwould": 538,
      "Ġlar": 539,
      "ury": 540,
      "old": 541,
      "ark": 542,
      "Ġmay": 543,
      "Ġtime": 544,
      "stem": 545,
      "Ġunder": 546,
      "ween": 547,
      "ĠEn": 548,
      "Ġonly": 549,
      "Ġplay": 550,
      "gan": 551,
      "ys": 552,
      "Ġac": 553,
      "Ġwhen": 554,
      "Ġinter": 555,
      "Ġso": 556,
      "Ġear": 557,
      "Ġacc": 558,
      "ind": 559,
      "als": 560,
      "ail": 561,
      "Ġmod": 562,
      "the": 563,
      "ove": 564,
      "Ġbetween": 565,
      "Ġass": 566,
      "ever": 567,
      "Ġnew": 568,
      "Ġph": 569,
      "Ġra": 570,
      "ran": 571,
      "Ġup": 572,
      "Ġthere": 573,
      "li": 574,
      "Ġspec": 575,
      "Ġmany": 576,
      "Ġind": 577,
      "ral": 578,
      "Ġoff": 579,
      "ild": 580,
      "\".": 581,
      "overn": 582,
      "Ġthem": 583,
      "Ġuse": 584,
      "Ġhim": 585,
      "cre": 586,
      "ities": 587,
      "Ġdif": 588,
      "urn": 589,
      "Ġpe": 590,
      "Ġ199": 591,
      "Ġ3": 592,
      "velop": 593,
      "ram": 594,
      "ince": 595,
      "ĠY": 596,
      "Ġno": 597,
      "Ġsystem": 598,
      "Ġcount": 599,
      "Ġdef": 600,
      "ĠCom": 601,
      "ars": 602,
      "Ġpr": 603,
      "Ġtrans": 604,
      "Ġqu": 605,
      "Ġthrough": 606,
      "Ġact": 607,
      "ject": 608,
      "Ġher": 609,
      "Ġbl": 610,
      "ution": 611,
      "ines": 612,
      "ĠSe": 613,
      "ern": 614,
      "Ġcall": 615,
      "ollow": 616,
      "Ġpos": 617,
      "ward": 618,
      "uc": 619,
      "ĠBrit": 620,
      "Ġpres": 621,
      "Ġwhere": 622,
      "Ġwe": 623,
      "ond": 624,
      "orn": 625,
      "ating": 626,
      "Ġpub": 627,
      "Ġrem": 628,
      "ished": 629,
      "Ġduring": 630,
      "ake": 631,
      "ists": 632,
      "ict": 633,
      "oy": 634,
      "hes": 635,
      "Ġwork": 636,
      "arch": 637,
      "Ġem": 638,
      "Ġob": 639,
      "Ġsupp": 640,
      "Ġprov": 641,
      "ident": 642,
      "Ġdevelop": 643,
      "ĠRe": 644,
      "Ġdo": 645,
      "Ġinst": 646,
      "tle": 647,
      "Ġfil": 648,
      "cess": 649,
      "ug": 650,
      "Ġknown": 651,
      "ivers": 652,
      "Ġset": 653,
      "ious": 654,
      "Ġpol": 655,
      "uro": 656,
      "Ġinv": 657,
      "Ġmet": 658,
      "ays": 659,
      "ause": 660,
      "\",": 661,
      "ures": 662,
      "Ġman": 663,
      "ower": 664,
      "Ġli": 665,
      "very": 666,
      "led": 667,
      "Ġpop": 668,
      "ically": 669,
      "Ġinf": 670,
      "ments": 671,
      "Ġmem": 672,
      "hip": 673,
      "Ġgener": 674,
      "ient": 675,
      "owever": 676,
      "oh": 677,
      "Ġvari": 678,
      "Ġfound": 679,
      "cept": 680,
      "fore": 681,
      "Ġthese": 682,
      "Ġtra": 683,
      "Ġap": 684,
      "ix": 685,
      "ually": 686,
      "ĠCon": 687,
      "ton": 688,
      "Ġabout": 689,
      "outh": 690,
      "Ġgovern": 691,
      "ĠDe": 692,
      "ĠEng": 693,
      "aj": 694,
      "ized": 695,
      "cted": 696,
      "ah": 697,
      "tain": 698,
      "Ġyears": 699,
      "Ġchar": 700,
      "ible": 701,
      "ĠNew": 702,
      "Ġfollow": 703,
      "Ġfl": 704,
      "ins": 705,
      "Ġdist": 706,
      "Ġco": 707,
      "ium": 708,
      "Ġexp": 709,
      "Ġloc": 710,
      "hen": 711,
      "ople": 712,
      "Ġcentury": 713,
      "ved": 714,
      "Ġnumber": 715,
      "angu": 716,
      "Ġadd": 717,
      "oci": 718,
      "ise": 719,
      "Ġeff": 720,
      "ered": 721,
      "ĠAmerican": 722,
      "ĠOn": 723,
      "yp": 724,
      "Ġincluding": 725,
      "Ġmade": 726,
      "Ġrep": 727,
      "Ġdiffer": 728,
      "Ġfe": 729,
      "ctions": 730,
      "inal": 731,
      "lish": 732,
      "Ġfilm": 733,
      "Ġsur": 734,
      "19": 735,
      "ural": 736,
      "Ġwell": 737,
      "orth": 738,
      "Ġbeing": 739,
      "ĠAt": 740,
      "Ġimp": 741,
      "Ġboth": 742,
      "Ġcre": 743,
      "ĠFor": 744,
      "io": 745,
      "lex": 746,
      "ĠUnited": 747,
      "Ġserv": 748,
      "Ġcalled": 749,
      "Ġwrit": 750,
      "Ġmain": 751,
      "Ġcar": 752,
      "Ġbu": 753,
      "Ġext": 754,
      "man": 755,
      "ife": 756,
      "Ġagain": 757,
      "cy": 758,
      "Ġsign": 759,
      "ature": 760,
      "round": 761,
      "ants": 762,
      "iel": 763,
      "Ġany": 764,
      "Ġthen": 765,
      "uch": 766,
      "its": 767,
      ".\"": 768,
      "Ġent": 769,
      "ĠAp": 770,
      "Ġwhile": 771,
      "bers": 772,
      "cial": 773,
      "Ġstud": 774,
      "Ġhist": 775,
      "imes": 776,
      "Ġend": 777,
      "ĠAm": 778,
      "Ġlater": 779,
      "ility": 780,
      "Ġ198": 781,
      "cond": 782,
      "Ġsim": 783,
      "ĠIs": 784,
      "Ġbecame": 785,
      "ters": 786,
      "Ġdec": 787,
      "Ġ4": 788,
      "Ġart": 789,
      "Ġthree": 790,
      "Ġsm": 791,
      "ather": 792,
      "ock": 793,
      "ĠBritish": 794,
      "hem": 795,
      "Ġ197": 796,
      "Ġoften": 797,
      "Ġlangu": 798,
      "ĠEuro": 799,
      "ll": 800,
      "ick": 801,
      "Ġterm": 802,
      "Ġdep": 803,
      "Ġearly": 804,
      "ians": 805,
      "ros": 806,
      "ract": 807,
      "other": 808,
      "elf": 809,
      "Ġgroup": 810,
      "Ġconst": 811,
      "Ġmon": 812,
      "Ġser": 813,
      "ames": 814,
      "Ġlarge": 815,
      "Ġaut": 816,
      "Ġhigh": 817,
      "ĠLe": 818,
      "Ġair": 819,
      "ork": 820,
      "ily": 821,
      "gest": 822,
      "rist": 823,
      "ision": 824,
      "ck": 825,
      "ĠBl": 826,
      "Ġpeople": 827,
      "Ġsever": 828,
      "ages": 829,
      "Ġ.": 830,
      "Ġdesc": 831,
      "ology": 832,
      "Ġcontin": 833,
      "Ġpartic": 834,
      "ting": 835,
      "rop": 836,
      "ĠAf": 837,
      "ful": 838,
      "ĠEurope": 839,
      "ĠBe": 840,
      "Ġest": 841,
      "Ġstate": 842,
      "Ġcommon": 843,
      "lished": 844,
      "ajor": 845,
      "Ġmus": 846,
      "Ġdire": 847,
      "Ġorig": 848,
      "ues": 849,
      "ty": 850,
      "Ġcity": 851,
      "ann": 852,
      "Ġlong": 853,
      "ĠCol": 854,
      "Ġappe": 855,
      "Ġ196": 856,
      "ool": 857,
      "apt": 858,
      "Ġ5": 859,
      "Ġworld": 860,
      "vent": 861,
      "ĠInd": 862,
      "Ġconsid": 863,
      "iversity": 864,
      "Ġresult": 865,
      "Ġret": 866,
      "Ġoper": 867,
      "air": 868,
      "ex": 869,
      "Ġpers": 870,
      "ield": 871,
      "iew": 872,
      "ax": 873,
      "ĠSh": 874,
      "Ġant": 875,
      "Ġcould": 876,
      "ger": 877,
      "Ġlead": 878,
      "ĠAd": 879,
      "ined": 880,
      "til": 881,
      "az": 882,
      "uss": 883,
      "Ġsame": 884,
      "ample": 885,
      "Ġown": 886,
      "osed": 887,
      "ange": 888,
      "ĠAust": 889,
      "though": 890,
      "Ġlike": 891,
      "ital": 892,
      "ĠWar": 893,
      "Ġgovernment": 894,
      "ale": 895,
      "ble": 896,
      "Ġocc": 897,
      "Ġmin": 898,
      "ĠSp": 899,
      "ĠChrist": 900,
      "lo": 901,
      "ĠSc": 902,
      "ĠStates": 903,
      "oman": 904,
      "raph": 905,
      "Ġwar": 906,
      "Ġsmall": 907,
      "000": 908,
      "omet": 909,
      "acter": 910,
      "ived": 911,
      "ae": 912,
      "rol": 913,
      "Ġed": 914,
      "Ġbefore": 915,
      "Ġwill": 916,
      "Ġshe": 917,
      "Ġsecond": 918,
      "ired": 919,
      "Ġdifferent": 920,
      "ank": 921,
      "Ġ,": 922,
      "ared": 923,
      "Ġfam": 924,
      "Ġmed": 925,
      "ĠJoh": 926,
      "urch": 927,
      "Ġ17": 928,
      "ute": 929,
      "gy": 930,
      "ional": 931,
      "Ġeach": 932,
      "Ġdisc": 933,
      "Ġdesign": 934,
      "Ġseveral": 935,
      "ives": 936,
      "Ġmajor": 937,
      "ene": 938,
      "Ġbro": 939,
      "Ġsupport": 940,
      "chn": 941,
      "els": 942,
      "Ġbel": 943,
      "Ġbecause": 944,
      "Ġprog": 945,
      "ĠAb": 946,
      "Ġinclude": 947,
      "ised": 948,
      "ĠGerm": 949,
      "Ġexample": 950,
      "Ġarm": 951,
      "ety": 952,
      "Ġremain": 953,
      "Ġif": 954,
      "Ġlaw": 955,
      "aking": 956,
      "ccess": 957,
      "iod": 958,
      "Ġhum": 959,
      "Ġeffect": 960,
      "ĠPro": 961,
      "ĠWor": 962,
      "ording": 963,
      "min": 964,
      "Ġagainst": 965,
      "Ġland": 966,
      "riv": 967,
      "Ġsch": 968,
      "ĠHowever": 969,
      "ĠThere": 970,
      "Ġsince": 971,
      "iver": 972,
      "aid": 973,
      "ĠJohn": 974,
      "oint": 975,
      "Ġcommun": 976,
      "ĠZ": 977,
      "ash": 978,
      "Ġname": 979,
      "atic": 980,
      "ides": 981,
      "ries": 982,
      "ided": 983,
      "Ġpo": 984,
      "ilit": 985,
      "ices": 986,
      "Ġstr": 987,
      "ning": 988,
      "ird": 989,
      "Ġtrad": 990,
      "ĠComm": 991,
      "Ġincre": 992,
      "Ġfun": 993,
      "Ġfour": 994,
      "Ġpublic": 995,
      "ina": 996,
      "Ġuntil": 997,
      "Ġallow": 998,
      "cent": 999,
      "Ġrequ": 1000,
      "Ġcult": 1001,
      "ox": 1002,
      "Ġleg": 1003,
      "Ġbook": 1004,
      "ulation": 1005,
      "ĠWh": 1006,
      "Ġ6": 1007,
      "Ġins": 1008,
      "Ġdet": 1009,
      "ĠWorld": 1010,
      "20": 1011,
      "ued": 1012,
      "ĠEnglish": 1013,
      "ley": 1014,
      "ĠCl": 1015,
      "get": 1016,
      "Ġback": 1017,
      "way": 1018,
      "Ġref": 1019,
      "lu": 1020,
      "eral": 1021,
      "Ġpower": 1022,
      "ified": 1023,
      "itions": 1024,
      "ged": 1025,
      "Ġcountry": 1026,
      "Ġorgan": 1027,
      "conom": 1028,
      "ven": 1029,
      "yn": 1030,
      "ĠPh": 1031,
      "ruct": 1032,
      "Ġmat": 1033,
      "Ġ7": 1034,
      "yl": 1035,
      "Ġequ": 1036,
      "Ġimport": 1037,
      "mber": 1038,
      "raft": 1039,
      "Ġthough": 1040,
      "arm": 1041,
      "ius": 1042,
      "Ġcap": 1043,
      "ission": 1044,
      "Ġsuccess": 1045,
      "Ġval": 1046,
      "ases": 1047,
      "ience": 1048,
      "ĠThey": 1049,
      "Ġsing": 1050,
      "Ġelect": 1051,
      "to": 1052,
      "Ġprocess": 1053,
      "son": 1054,
      "Ġcor": 1055,
      "lect": 1056,
      "Ġbat": 1057,
      "ĠUniversity": 1058,
      "Ġop": 1059,
      "xt": 1060,
      "por": 1061,
      "enn": 1062,
      "ris": 1063,
      "ier": 1064,
      "Ġposs": 1065,
      "Ġshow": 1066,
      "ternational": 1067,
      "Ġrele": 1068,
      "ĠCan": 1069,
      "ner": 1070,
      "inc": 1071,
      "oph": 1072,
      "ason": 1073,
      "ended": 1074,
      "eng": 1075,
      "rad": 1076,
      "Ġrefer": 1077,
      "ring": 1078,
      "Ġthose": 1079,
      "ross": 1080,
      "ĠThese": 1081,
      "ement": 1082,
      "Ġperiod": 1083,
      "Ġbased": 1084,
      "Ġdid": 1085,
      "ouse": 1086,
      "Ġdescrib": 1087,
      "com": 1088,
      "Ġconf": 1089,
      "Ġcur": 1090,
      "Ġpar": 1091,
      "Ġright": 1092,
      "aim": 1093,
      "oot": 1094,
      "ize": 1095,
      "Ġprogram": 1096,
      "ĠII": 1097,
      "ness": 1098,
      "rodu": 1099,
      "Ġoffic": 1100,
      "pect": 1101,
      "ilar": 1102,
      "Ġpolit": 1103,
      "Ġperson": 1104,
      "ull": 1105,
      "Ġlife": 1106,
      "ript": 1107,
      "Ġorder": 1108,
      "ets": 1109,
      "ently": 1110,
      "ization": 1111,
      "ences": 1112,
      "ration": 1113,
      "resent": 1114,
      "Ġaround": 1115,
      "Ġdiv": 1116,
      "Ġarea": 1117,
      "Ġnear": 1118,
      "ĠOr": 1119,
      "Ġclass": 1120,
      "ĠArm": 1121,
      "ane": 1122,
      "Ġnon": 1123,
      "Ġsl": 1124,
      "Ġmar": 1125,
      "Ġlanguage": 1126,
      "Ġeven": 1127,
      "ĠCar": 1128,
      "Ġbegan": 1129,
      "Ġ194": 1130,
      "Ġdirect": 1131,
      "ĠAfter": 1132,
      "ody": 1133,
      "dom": 1134,
      "Ġwithin": 1135,
      "Ġestab": 1136,
      "Ġke": 1137,
      "aced": 1138,
      "par": 1139,
      "aving": 1140,
      "Ġusing": 1141,
      "Ġrecord": 1142,
      "mp": 1143,
      "Ġtechn": 1144,
      "Ġmodern": 1145,
      "Ġexpl": 1146,
      "Ġdeath": 1147,
      "ĠAfric": 1148,
      "Ġcharacter": 1149,
      "rid": 1150,
      "Ġbelie": 1151,
      "ode": 1152,
      "Ġlit": 1153,
      "Ġamong": 1154,
      "Ġtyp": 1155,
      "ĠAlex": 1156,
      "amed": 1157,
      "eg": 1158,
      "Ġfollowing": 1159,
      "Ġperform": 1160,
      "Ġav": 1161,
      "que": 1162,
      "Ġpass": 1163,
      "Ġmuch": 1164,
      "Ġ195": 1165,
      "lands": 1166,
      "Ġinflu": 1167,
      "ĠGree": 1168,
      "ories": 1169,
      "Ġgiv": 1170,
      "Ġexper": 1171,
      "ograph": 1172,
      "Ġprop": 1173,
      "ec": 1174,
      "Ġopp": 1175,
      "ober": 1176,
      "gen": 1177,
      "Ġ16": 1178,
      "Ġcomput": 1179,
      "Ġwater": 1180,
      "Ġeconom": 1181,
      "Ġseries": 1182,
      "hor": 1183,
      "ially": 1184,
      "ĠAustral": 1185,
      "ĠMar": 1186,
      "tic": 1187,
      "Ġ'": 1188,
      "Ġappro": 1189,
      "Ġstand": 1190,
      "ĠSch": 1191,
      "Ġadv": 1192,
      "ony": 1193,
      "epend": 1194,
      "estern": 1195,
      "Ġteam": 1196,
      "ĠSome": 1197,
      "ĠSouth": 1198,
      "ik": 1199,
      "Ġword": 1200,
      "ological": 1201,
      "Ġdue": 1202,
      "Ġcontrol": 1203,
      "Ġmark": 1204,
      "Ġstat": 1205,
      "ball": 1206,
      "ves": 1207,
      "read": 1208,
      "Ġresp": 1209,
      "Ġsol": 1210,
      "Ġmusic": 1211,
      "Ġcour": 1212,
      "ately": 1213,
      "ister": 1214,
      "Ġconsidered": 1215,
      "Ġ15": 1216,
      "ilitary": 1217,
      "Ġrest": 1218,
      "Ġbas": 1219,
      "eb": 1220,
      "ĠCent": 1221,
      "ense": 1222,
      "ament": 1223,
      "ids": 1224,
      "ander": 1225,
      "row": 1226,
      "ĠKing": 1227,
      "ĠNorth": 1228,
      "Ġann": 1229,
      "Ġstill": 1230,
      "Ġpopular": 1231,
      "ior": 1232,
      "itional": 1233,
      "Ġeng": 1234,
      "ĠBy": 1235,
      "ĠNational": 1236,
      "Ġalong": 1237,
      "Ġnow": 1238,
      "Ġvery": 1239,
      "Ġes": 1240,
      "ink": 1241,
      "Ġhand": 1242,
      "ple": 1243,
      "ards": 1244,
      "Ġfin": 1245,
      "Ġcomple": 1246,
      "Ġgu": 1247,
      "rench": 1248,
      "craft": 1249,
      "Ġcomb": 1250,
      "de": 1251,
      "ĠQ": 1252,
      "Ġdem": 1253,
      "ublic": 1254,
      "Ġmembers": 1255,
      "Ġparticular": 1256,
      "iet": 1257,
      "Ġter": 1258,
      "Ġattack": 1259,
      "Ġsimilar": 1260,
      "ried": 1261,
      "Ġhistor": 1262,
      "Ġindu": 1263,
      "Ġrece": 1264,
      "Ġtem": 1265,
      "ĠAng": 1266,
      "Ġopen": 1267,
      "Ġspecies": 1268,
      "Ġ8": 1269,
      "ĠAg": 1270,
      "Ġrad": 1271,
      "Ġrepresent": 1272,
      "Ġreturn": 1273,
      "oss": 1274,
      "ole": 1275,
      "iam": 1276,
      "Ġrev": 1277,
      "Ġrun": 1278,
      "Ġfact": 1279,
      "ĠBat": 1280,
      "Ġhead": 1281,
      "Ġbo": 1282,
      "Ġmov": 1283,
      "ains": 1284,
      "Ġpresent": 1285,
      "ĠPl": 1286,
      "Ġvers": 1287,
      "ination": 1288,
      "omen": 1289,
      "Ġvarious": 1290,
      "Ġhuman": 1291,
      "ator": 1292,
      "une": 1293,
      "Ġ10": 1294,
      "Ġcer": 1295,
      "Ġsaid": 1296,
      "ĠBar": 1297,
      "ster": 1298,
      "me": 1299,
      "Ġled": 1300,
      "ĠFrench": 1301,
      "Ġwhat": 1302,
      "gin": 1303,
      "af": 1304,
      "ĠAir": 1305,
      "Ġreport": 1306,
      "Ġfre": 1307,
      "Ġplace": 1308,
      "rent": 1309,
      "Ġaff": 1310,
      "yd": 1311,
      "Ġpract": 1312,
      "ches": 1313,
      "rab": 1314,
      "ĠRoman": 1315,
      "Ġimportant": 1316,
      "ality": 1317,
      "empt": 1318,
      "Ġstart": 1319,
      "Ġvis": 1320,
      "ument": 1321,
      "ugust": 1322,
      "Ġbuild": 1323,
      "cing": 1324,
      "ĠAll": 1325,
      "Ġchild": 1326,
      "alth": 1327,
      "Ġsomet": 1328,
      "Ġline": 1329,
      "hod": 1330,
      "by": 1331,
      "ĠMus": 1332,
      "Ġmove": 1333,
      "Ġve": 1334,
      "Ġlast": 1335,
      "Ġbi": 1336,
      "Ġcrit": 1337,
      "ray": 1338,
      "app": 1339,
      "Ġgreat": 1340,
      "Ġdevelopment": 1341,
      "Ġpat": 1342,
      "ĠAugust": 1343,
      "istic": 1344,
      "ĠAcc": 1345,
      "ither": 1346,
      "idd": 1347,
      "ively": 1348,
      "lin": 1349,
      "ales": 1350,
      "Ġgame": 1351,
      "ĠBC": 1352,
      "rew": 1353,
      "cer": 1354,
      "ites": 1355,
      "Ġschool": 1356,
      "ilt": 1357,
      "Ġusually": 1358,
      "Ġdeveloped": 1359,
      "Ġmake": 1360,
      "Ġclaim": 1361,
      "ms": 1362,
      "Ġgiven": 1363,
      "ember": 1364,
      "Ġanim": 1365,
      "Ġmilitary": 1366,
      "Ġgeneral": 1367,
      "med": 1368,
      "Ġshort": 1369,
      "..": 1370,
      "Ġless": 1371,
      "Ġmult": 1372,
      "day": 1373,
      "olic": 1374,
      "Ġhome": 1375,
      "Ġoccur": 1376,
      "Ġleft": 1377,
      "ĠAnd": 1378,
      "tal": 1379,
      "Ġident": 1380,
      "amb": 1381,
      "ĠApol": 1382,
      "Ġinvol": 1383,
      "Ġnational": 1384,
      "ĠGerman": 1385,
      "Ġsug": 1386,
      "Ġformer": 1387,
      "ĠUS": 1388,
      "Ġbecome": 1389,
      "Ġwithout": 1390,
      "Ġsignific": 1391,
      "Ġrepl": 1392,
      "Ġproper": 1393,
      "Ġhistory": 1394,
      "Ġide": 1395,
      "Ġold": 1396,
      "ocial": 1397,
      "Ġcountries": 1398,
      "Ġfore": 1399,
      "Ġanother": 1400,
      "Ġlim": 1401,
      "ĠDuring": 1402,
      "Ġanal": 1403,
      "uted": 1404,
      "ata": 1405,
      "ĠWhen": 1406,
      "be": 1407,
      "Ġsingle": 1408,
      "Ġcolle": 1409,
      "itution": 1410,
      "Ġneed": 1411,
      "ĠHis": 1412,
      "ĠWill": 1413,
      "rand": 1414,
      "Ġfield": 1415,
      "Ġinc": 1416,
      "ague": 1417,
      "The": 1418,
      "ĠAss": 1419,
      "Ġevery": 1420,
      "ĠRuss": 1421,
      "ĠYork": 1422,
      "astern": 1423,
      "akes": 1424,
      "Ġport": 1425,
      "ivil": 1426,
      "Ġstruct": 1427,
      "Ġpublished": 1428,
      "ots": 1429,
      "Ġdev": 1430,
      "urther": 1431,
      "wards": 1432,
      "omin": 1433,
      "Ġlocal": 1434,
      "Ġprim": 1435,
      "ats": 1436,
      "Ġarg": 1437,
      "line": 1438,
      "ware": 1439,
      "ule": 1440,
      "Ġcr": 1441,
      "Ġprot": 1442,
      "ling": 1443,
      "Ġstates": 1444,
      "Ġobs": 1445,
      "ĠCal": 1446,
      "Ġgo": 1447,
      "Ġfamily": 1448,
      "Ġdown": 1449,
      "ze": 1450,
      "ĠEar": 1451,
      "cil": 1452,
      "Ġbus": 1453,
      "Ġlate": 1454,
      "ably": 1455,
      "Ġassoci": 1456,
      "ances": 1457,
      "ĠTr": 1458,
      "Ġ12": 1459,
      "Ġway": 1460,
      "Ġpolitical": 1461,
      "Ġorigin": 1462,
      "Ġarch": 1463,
      "Ġhig": 1464,
      "less": 1465,
      "ai": 1466,
      "ĠEuropean": 1467,
      "rote": 1468,
      "Ġiss": 1469,
      "ĠGe": 1470,
      "Ġfew": 1471,
      "Ġregion": 1472,
      "ĠApollo": 1473,
      "Ġcaus": 1474,
      "ogn": 1475,
      "pecial": 1476,
      "ĠCanad": 1477,
      "Ġview": 1478,
      "Ġexist": 1479,
      "ivid": 1480,
      "Ġrul": 1481,
      "Ġauthor": 1482,
      "Ġhowever": 1483,
      "Ġmill": 1484,
      "ĠChurch": 1485,
      "Ġ9": 1486,
      "iron": 1487,
      "Ġcond": 1488,
      "Ġtreat": 1489,
      "ones": 1490,
      "Ġchang": 1491,
      "olution": 1492,
      "Ġsk": 1493,
      "Ġbeh": 1494,
      "ential": 1495,
      "Ġlevel": 1496,
      "Ġ202": 1497,
      "aterial": 1498,
      "Ġbody": 1499,
      "ĠBo": 1500,
      "ele": 1501,
      "ops": 1502,
      "Ġhel": 1503,
      "Ġincluded": 1504,
      "Ġgl": 1505,
      "ĠMay": 1506,
      "Ġindepend": 1507,
      "au": 1508,
      "Ġfunction": 1509,
      "Ġindust": 1510,
      "ured": 1511,
      "Ġmen": 1512,
      "lear": 1513,
      "Ġheld": 1514,
      "Ġtele": 1515,
      "ery": 1516,
      "ĠPar": 1517,
      "aster": 1518,
      "Ġprof": 1519,
      "Ġkill": 1520,
      "ĠRep": 1521,
      "Ġpoint": 1522,
      "idence": 1523,
      "side": 1524,
      "Ġanc": 1525,
      "Ġsour": 1526,
      "irc": 1527,
      "Ġproble": 1528,
      "Ġintrodu": 1529,
      "Ġpur": 1530,
      "ead": 1531,
      "ored": 1532,
      "ĠPr": 1533,
      "ĠOne": 1534,
      "hern": 1535,
      "Ġalthough": 1536,
      "Ġcase": 1537,
      "Ġ11": 1538,
      "Ġday": 1539,
      "Ġpopulation": 1540,
      "ruction": 1541,
      "Ġsignificant": 1542,
      "oon": 1543,
      "rain": 1544,
      "Ġtook": 1545,
      "bit": 1546,
      "Ġcamp": 1547,
      "ention": 1548,
      "ability": 1549,
      "Ġ193": 1550,
      "ering": 1551,
      "Ġevent": 1552,
      "Ġprom": 1553,
      "formation": 1554,
      "ividual": 1555,
      "Ġattempt": 1556,
      "ĠMin": 1557,
      "ĠEx": 1558,
      "rict": 1559,
      "ĠChar": 1560,
      "Ġinit": 1561,
      "sequ": 1562,
      "ott": 1563,
      "Ġphys": 1564,
      "Ġjust": 1565,
      "Ġspace": 1566,
      "put": 1567,
      "Ġwrote": 1568,
      "Ġobject": 1569,
      "Ġsuggest": 1570,
      "ĠWest": 1571,
      "ges": 1572,
      "Ġsepar": 1573,
      "Ġmaterial": 1574,
      "Ġsystems": 1575,
      "ĠFran": 1576,
      "ĠAccording": 1577,
      "Ġshould": 1578,
      "orthern": 1579,
      "Ġdoes": 1580,
      "ival": 1581,
      ".,": 1582,
      "ĠGod": 1583,
      "itive": 1584,
      "Ġread": 1585,
      "atural": 1586,
      "Ġmethod": 1587,
      "Ġredu": 1588,
      "Ġlow": 1589,
      "Ġactiv": 1590,
      "Ġhaving": 1591,
      "Ġareas": 1592,
      "ĠOct": 1593,
      "Ġrelig": 1594,
      "Ġlargest": 1595,
      "ĠGreek": 1596,
      "Ġnamed": 1597,
      "ĠDav": 1598,
      "aun": 1599,
      "Ġ14": 1600,
      "Ġproduced": 1601,
      "Ġproduct": 1602,
      "rated": 1603,
      "emb": 1604,
      "most": 1605,
      "ĠEd": 1606,
      "Ġrole": 1607,
      "Ġwritten": 1608,
      "for": 1609,
      "anu": 1610,
      "ĠBro": 1611,
      "Ġcal": 1612,
      "Ġwide": 1613,
      "aken": 1614,
      "Ġoriginal": 1615,
      "ĠChristian": 1616,
      "ek": 1617,
      "Ġindividual": 1618,
      "Ġband": 1619,
      "Ġlight": 1620,
      "Ġestablished": 1621,
      "Ġtimes": 1622,
      "Ġcell": 1623,
      "Ġtest": 1624,
      "ained": 1625,
      "Ġblack": 1626,
      "ouncil": 1627,
      "ĠBer": 1628,
      "Ġprev": 1629,
      "Ġep": 1630,
      "Ġhelp": 1631,
      "Ġer": 1632,
      "Ġdecl": 1633,
      "Ġsym": 1634,
      "Ġnorth": 1635,
      "che": 1636,
      "Ġappear": 1637,
      "iving": 1638,
      "iness": 1639,
      "alf": 1640,
      "Ġ13": 1641,
      "ĠUnion": 1642,
      "ril": 1643,
      "Ġmean": 1644,
      "Ġrese": 1645,
      "ĠSept": 1646,
      "ape": 1647,
      "ploy": 1648,
      "Ġreal": 1649,
      "Ġmust": 1650,
      "Ġmag": 1651,
      "ĠHer": 1652,
      "omb": 1653,
      "ends": 1654,
      "Ġwin": 1655,
      "augh": 1656,
      "ype": 1657,
      "ham": 1658,
      "Ġeither": 1659,
      "Ġbuilt": 1660,
      "ched": 1661,
      "ctor": 1662,
      "Ġsometimes": 1663,
      "aur": 1664,
      "aut": 1665,
      "Ġtake": 1666,
      "Ġservice": 1667,
      "ote": 1668,
      "Ġbre": 1669,
      "ways": 1670,
      "Ġfive": 1671,
      "ipp": 1672,
      "alk": 1673,
      "abor": 1674,
      "thern": 1675,
      "oms": 1676,
      "Ġking": 1677,
      "ffic": 1678,
      "ĠArab": 1679,
      "ilos": 1680,
      "Ġreleased": 1681,
      "ym": 1682,
      "Ġturn": 1683,
      "bert": 1684,
      "Ġtheory": 1685,
      "ĠEngland": 1686,
      "Ġsent": 1687,
      "anes": 1688,
      "ĠOther": 1689,
      "Ġproduction": 1690,
      "Ġmy": 1691,
      "Ġgrow": 1692,
      "zer": 1693,
      "atures": 1694,
      "Ġdel": 1695,
      "Ġothers": 1696,
      "Ġel": 1697,
      "umb": 1698,
      "Ġdescribed": 1699,
      "Ġplayed": 1700,
      "rian": 1701,
      "ison": 1702,
      "uly": 1703,
      "outhern": 1704,
      "Ġgames": 1705,
      "Ġtop": 1706,
      "Ġgenerally": 1707,
      "acy": 1708,
      "Ġbase": 1709,
      "ining": 1710,
      "Ġlanguages": 1711,
      "Ġsocial": 1712,
      "ency": 1713,
      "ĠAlthough": 1714,
      "Ġsix": 1715,
      "ler": 1716,
      "Ġsw": 1717,
      "pecially": 1718,
      "Ġsouth": 1719,
      "ĠAmerica": 1720,
      "Ġstrong": 1721,
      "used": 1722,
      "Ġalb": 1723,
      "Ġstudy": 1724,
      "face": 1725,
      "ĠSeptember": 1726,
      "eth": 1727,
      "ĠGen": 1728,
      "Ġlet": 1729,
      "ille": 1730,
      "ĠĠ": 1731,
      "Ġtit": 1732,
      "ergy": 1733,
      "overed": 1734,
      "Ġdest": 1735,
      "urg": 1736,
      "here": 1737,
      "ected": 1738,
      "ĠHist": 1739,
      "yle": 1740,
      "aces": 1741,
      "Ġofficial": 1742,
      "Ġrelations": 1743,
      "aries": 1744,
      "Ġgroups": 1745,
      "ĠWilliam": 1746,
      "Ġhow": 1747,
      "Ġworks": 1748,
      "Ġposition": 1749,
      "self": 1750,
      "co": 1751,
      "Ġmass": 1752,
      "Ġspecial": 1753,
      "ban": 1754,
      "Ġcirc": 1755,
      "aren": 1756,
      "Ġfree": 1757,
      "ĠAct": 1758,
      "Ġearli": 1759,
      "Ġver": 1760,
      "ret": 1761,
      "incip": 1762,
      "ung": 1763,
      "Ġson": 1764,
      "Ġfurther": 1765,
      "ĠWhile": 1766,
      "reen": 1767,
      "ondon": 1768,
      "Ġcame": 1769,
      "ĠMany": 1770,
      "Ġvol": 1771,
      "fic": 1772,
      "Ġmot": 1773,
      "ips": 1774,
      "ĠShe": 1775,
      "ĠJew": 1776,
      "Ġcompany": 1777,
      "cul": 1778,
      "anuary": 1779,
      "Ġsong": 1780,
      "Ġaddition": 1781,
      "Ġpossible": 1782,
      "ĠWith": 1783,
      "Ġrather": 1784,
      "ĠBlack": 1785,
      "bs": 1786,
      "bon": 1787,
      "Ġpost": 1788,
      "ĠAc": 1789,
      "ĠBel": 1790,
      "ending": 1791,
      "vision": 1792,
      "asing": 1793,
      "ĠBr": 1794,
      "Ġcreated": 1795,
      "Ġversion": 1796,
      "ĠOctober": 1797,
      "Ġsyn": 1798,
      "ĠRepublic": 1799,
      "work": 1800,
      "Ġthird": 1801,
      "iation": 1802,
      "ĠGu": 1803,
      "ĠJanuary": 1804,
      "osp": 1805,
      "ify": 1806,
      "mon": 1807,
      "rap": 1808,
      "Ġri": 1809,
      "ĠAlexander": 1810,
      "sh": 1811,
      "Ġterrit": 1812,
      "Ġ191": 1813,
      "ĠPart": 1814,
      "Ġrange": 1815,
      "ridge": 1816,
      "cember": 1817,
      "Ġforces": 1818,
      "ification": 1819,
      "let": 1820,
      "Ġexpress": 1821,
      "ĠEmp": 1822,
      "Ġavail": 1823,
      "Ġparts": 1824,
      "then": 1825,
      "ociety": 1826,
      "Ġcertain": 1827,
      "ĠHar": 1828,
      "ovember": 1829,
      "Ġchem": 1830,
      "ĠLondon": 1831,
      "ĠDavid": 1832,
      "atin": 1833,
      "sc": 1834,
      "avy": 1835,
      "Ġcurrent": 1836,
      "rance": 1837,
      "etic": 1838,
      "Ġtri": 1839,
      "ĠJuly": 1840,
      "Ġsold": 1841,
      "ĠInternational": 1842,
      "ĠBook": 1843,
      "Ġespecially": 1844,
      "ĠMarch": 1845,
      "Ġenc": 1846,
      "lor": 1847,
      "ĠEast": 1848,
      "utions": 1849,
      "Ġsum": 1850,
      "Ġmeas": 1851,
      "ĠDecember": 1852,
      "Ġ-": 1853,
      "ĠX": 1854,
      "Ġtown": 1855,
      "Ġnumbers": 1856,
      "arian": 1857,
      "ĠApril": 1858,
      "aul": 1859,
      "enced": 1860,
      "ĠMon": 1861,
      "ĠNovember": 1862,
      "Ġaircraft": 1863,
      "Ġast": 1864,
      "Ġbar": 1865,
      "Ġcomplex": 1866,
      "iction": 1867,
      "ope": 1868,
      "Ġfood": 1869,
      "Ġgood": 1870,
      "eum": 1871,
      "Ġside": 1872,
      "Ġclose": 1873,
      "Ġcompet": 1874,
      "Ġcontinued": 1875,
      "BC": 1876,
      "Ġcapital": 1877,
      "ĠMed": 1878,
      "ĠGeor": 1879,
      "arily": 1880,
      "Ġbroad": 1881,
      "Ġrecogn": 1882,
      "Ġcomputer": 1883,
      "ateg": 1884,
      "Ġlist": 1885,
      "Ġnatural": 1886,
      "Ġdata": 1887,
      "ĠJune": 1888,
      "ĠWestern": 1889,
      "ming": 1890,
      "Ġinterest": 1891,
      "ps": 1892,
      "Ġpri": 1893,
      "Ġpot": 1894,
      "ĠPress": 1895,
      "Ġelements": 1896,
      "iddle": 1897,
      "ples": 1898,
      "like": 1899,
      "Ġpriv": 1900,
      "Ġeduc": 1901,
      "Ġobserv": 1902,
      "Ġalbum": 1903,
      "ald": 1904,
      "hers": 1905,
      "aly": 1906,
      "ths": 1907,
      "ert": 1908,
      "Ġcare": 1909,
      "Ġbattle": 1910,
      "ĠArt": 1911,
      "Ġinternational": 1912,
      "Ġabs": 1913,
      "ĠJap": 1914,
      "Ġfrequ": 1915,
      "oung": 1916,
      "Ġmillion": 1917,
      "ĠEmpire": 1918,
      "Ġfail": 1919,
      "aves": 1920,
      "atter": 1921,
      "rag": 1922,
      "Ġcivil": 1923,
      "ĠApp": 1924,
      "ief": 1925,
      "ront": 1926,
      "Ġmember": 1927,
      "iment": 1928,
      "oyal": 1929,
      "lation": 1930,
      "Ġhold": 1931,
      "ounced": 1932,
      "Ġsubject": 1933,
      "Ġaccept": 1934,
      "mit": 1935,
      "wh": 1936,
      "eration": 1937,
      "Ġformed": 1938,
      "Ġcat": 1939,
      "ana": 1940,
      "rug": 1941,
      "ensive": 1942,
      "chan": 1943,
      "Ġforms": 1944,
      "ĠCity": 1945,
      "ĠMost": 1946,
      "Ġterms": 1947,
      "Ġreceived": 1948,
      "Ġnever": 1949,
      "Ġtype": 1950,
      "Ġseason": 1951,
      "Ġimpro": 1952,
      "ĠArmy": 1953,
      "Ġpress": 1954,
      "Ġadmin": 1955,
      "Ġprincip": 1956,
      "int": 1957,
      "Ġder": 1958,
      "viron": 1959,
      "Ġwon": 1960,
      "Ġthroughout": 1961,
      "cur": 1962,
      "reg": 1963,
      "ators": 1964,
      "Ġcop": 1965,
      "oid": 1966,
      "ask": 1967,
      "Ġsubst": 1968,
      "eter": 1969,
      "ĠMan": 1970,
      "Ġchildren": 1971,
      "Ġwomen": 1972,
      "Ġavailable": 1973,
      "Ġ192": 1974,
      "adem": 1975,
      "Ġexec": 1976,
      "Ġaccount": 1977,
      "ising": 1978,
      "Ġmultip": 1979,
      "Ġge": 1980,
      "ights": 1981,
      "ude": 1982,
      "Ġcolon": 1983,
      "hib": 1984,
      "ibr": 1985,
      "Ġmanag": 1986,
      "Ġengine": 1987,
      "reme": 1988,
      "Ġseen": 1989,
      "Ġcy": 1990,
      "ĠAfrican": 1991,
      "Ġhost": 1992,
      "Ġdied": 1993,
      "Ġren": 1994,
      "Ġmaking": 1995,
      "Ġleast": 1996,
      "Ġprevious": 1997,
      "osition": 1998,
      "ached": 1999,
      "Ġlaun": 2000,
      "of": 2001,
      "Ġresearch": 2002,
      "val": 2003,
      "rum": 2004,
      "ened": 2005,
      "raw": 2006,
      "Ġevidence": 2007,
      "ĠCor": 2008,
      "Ġcentral": 2009,
      "Ġcomplete": 2010,
      "utes": 2011,
      "ades": 2012,
      "Ġground": 2013,
      "sp": 2014,
      "Ġage": 2015,
      "Ġhalf": 2016,
      "Ġhimself": 2017,
      "ĠSw": 2018,
      "Ġlower": 2019,
      "Ġancient": 2020,
      "itu": 2021,
      "ĠSince": 2022,
      "Ġarmy": 2023,
      "Ġfeature": 2024,
      "stand": 2025,
      "Ġsuper": 2026,
      "inese": 2027,
      "ĠSov": 2028,
      "ĠAnt": 2029,
      "Ġphilos": 2030,
      "Ġeconomic": 2031,
      "Ġthus": 2032,
      "imate": 2033,
      "istan": 2034,
      "Ġtro": 2035,
      "Ġcapt": 2036,
      "ria": 2037,
      "Ġforce": 2038,
      "ĠPres": 2039,
      "Ġcoast": 2040,
      "lam": 2041,
      "Ġoffer": 2042,
      "Ġstandard": 2043,
      "Ġinformation": 2044,
      "Ġregard": 2045,
      "ĠAustralian": 2046,
      "iber": 2047,
      "alt": 2048,
      "Ġnet": 2049,
      "ĠNe": 2050,
      "Ġeth": 2051,
      "Ġpain": 2052,
      "Ġdays": 2053,
      "ption": 2054,
      "Ġden": 2055,
      "ĠCanada": 2056,
      "erous": 2057,
      "bo": 2058,
      "ĠCath": 2059,
      "Ġcommand": 2060,
      "kn": 2061,
      "Ġdeb": 2062,
      "ĠIf": 2063,
      "play": 2064,
      "aper": 2065,
      "Ġtre": 2066,
      "ĠGreat": 2067,
      "Ġconsist": 2068,
      "Ġisland": 2069,
      "ama": 2070,
      "ĠCo": 2071,
      "Ġabove": 2072,
      "Ġfind": 2073,
      "ĠDes": 2074,
      "inary": 2075,
      "ĠBra": 2076,
      "ford": 2077,
      "ĠPol": 2078,
      "ique": 2079,
      "ĠSu": 2080,
      "Ġgr": 2081,
      "Ġacross": 2082,
      "arn": 2083,
      "ĠAfrica": 2084,
      "Ġconcept": 2085,
      "Ġmeans": 2086,
      "Ġhard": 2087,
      "ĠSer": 2088,
      "Ġscient": 2089,
      "cript": 2090,
      "Ġproject": 2091,
      "Ġconc": 2092,
      "Ġjoin": 2093,
      "Ġcourt": 2094,
      "Ġball": 2095,
      "Ġprofess": 2096,
      "Ġtaken": 2097,
      "ula": 2098,
      "rael": 2099,
      "Ġpolic": 2100,
      "ĠTo": 2101,
      "lement": 2102,
      "Ġentire": 2103,
      "ĠEarth": 2104,
      "ĠRiver": 2105,
      "gypt": 2106,
      "Ġbest": 2107,
      "pite": 2108,
      "Ġmodel": 2109,
      "AS": 2110,
      "Ġflow": 2111,
      "Ġagre": 2112,
      "iol": 2113,
      "Ġupon": 2114,
      "ingu": 2115,
      "Ġtw": 2116,
      "Ġenergy": 2117,
      "Ġdeterm": 2118,
      "Ġfire": 2119,
      "Ġbegin": 2120,
      "ĠKingdom": 2121,
      "Ġred": 2122,
      "Ġnext": 2123,
      "ĠComp": 2124,
      "200": 2125,
      "Ġsoft": 2126,
      "inct": 2127,
      "Ġprote": 2128,
      "ĠInst": 2129,
      "Ġincludes": 2130,
      "ney": 2131,
      "Ġlocated": 2132,
      "Ġpresident": 2133,
      "Ġparty": 2134,
      "Ġtraditional": 2135,
      "Ġmaintain": 2136,
      "ĠSy": 2137,
      "Ġaccess": 2138,
      "ef": 2139,
      "lant": 2140,
      "bor": 2141,
      "ĠEgypt": 2142,
      "ĠHouse": 2143,
      "ĠKh": 2144,
      "Ġplayer": 2145,
      "Ġindic": 2146,
      "Ġmarket": 2147,
      "isc": 2148,
      "Ġfollowed": 2149,
      "Ġfinal": 2150,
      "icro": 2151,
      "ĠConst": 2152,
      "Ġculture": 2153,
      "Ġconn": 2154,
      "Ġnovel": 2155,
      "Ġsex": 2156,
      "Ġadop": 2157,
      "Ġsuccessful": 2158,
      "Ġbusiness": 2159,
      "cle": 2160,
      "Ġtotal": 2161,
      "ceed": 2162,
      "pir": 2163,
      "ĠTe": 2164,
      "ĠFrance": 2165,
      "oly": 2166,
      "Ġfather": 2167,
      "Ġdi": 2168,
      "Ġchange": 2169,
      "sel": 2170,
      "ĠChinese": 2171,
      "Ġrelative": 2172,
      "Ġfull": 2173,
      "Ġneg": 2174,
      "Ġinstead": 2175,
      "Ġanti": 2176,
      "ĠRes": 2177,
      "iforn": 2178,
      "Ġrelated": 2179,
      "ino": 2180,
      "ĠEl": 2181,
      "ĠChina": 2182,
      "Ġtext": 2183,
      "Ġliter": 2184,
      "rast": 2185,
      "ĠIndia": 2186,
      "fact": 2187,
      "Ġdoc": 2188,
      "gether": 2189,
      "ving": 2190,
      "Ġtogether": 2191,
      "ĠLatin": 2192,
      "Ġcontain": 2193,
      "Ġfoot": 2194,
      "ĠSm": 2195,
      "Ġperm": 2196,
      "Ġassociated": 2197,
      "ĠSoviet": 2198,
      "Ġnorm": 2199,
      "ads": 2200,
      "Ġthought": 2201,
      "ĠConf": 2202,
      "vironment": 2203,
      "Ġz": 2204,
      "atory": 2205,
      "Ġtrade": 2206,
      "Ġprovide": 2207,
      "Ġsound": 2208,
      "Ġmid": 2209,
      "ĠAthen": 2210,
      "Ġcases": 2211,
      "Ġfoc": 2212,
      "ĠAustralia": 2213,
      "Ġhigher": 2214,
      "Ġmer": 2215,
      "Ġexcept": 2216,
      "ĠPhil": 2217,
      "ĠBas": 2218,
      "udd": 2219,
      "sy": 2220,
      "Ġinvest": 2221,
      "ebru": 2222,
      "Ġalmost": 2223,
      "order": 2224,
      "Ġimm": 2225,
      "Ġcommunity": 2226,
      "bra": 2227,
      "unic": 2228,
      "ebruary": 2229,
      "Ġsee": 2230,
      "aff": 2231,
      "Ġmount": 2232,
      "Ġbecom": 2233,
      "rest": 2234,
      "mercial": 2235,
      "Ġitself": 2236,
      "ography": 2237,
      "action": 2238,
      "Ġcover": 2239,
      "ĠPers": 2240,
      "ĠBritain": 2241,
      "Ġaltern": 2242,
      "Ġmovement": 2243,
      "ficult": 2244,
      "Ġmiss": 2245,
      "ĠCouncil": 2246,
      "ĠPe": 2247,
      "Ġtar": 2248,
      "Ġhyd": 2249,
      "cret": 2250,
      "Ġplan": 2251,
      "ours": 2252,
      "ternal": 2253,
      "ica": 2254,
      "liament": 2255,
      "ought": 2256,
      "not": 2257,
      "Ġox": 2258,
      "Ġfac": 2259,
      "icle": 2260,
      "ĠCount": 2261,
      "Ġemploy": 2262,
      "Ġelectron": 2263,
      "Ġfilms": 2264,
      "Ġkey": 2265,
      "Ġinfluence": 2266,
      "Ġfav": 2267,
      "Ġplayers": 2268,
      "Ġaccording": 2269,
      "Ġintroduced": 2270,
      "Ġconcern": 2271,
      "Ġable": 2272,
      "ports": 2273,
      "Ġdifficult": 2274,
      "Ġtemper": 2275,
      "ĠCentral": 2276,
      "Ġparticularly": 2277,
      "aign": 2278,
      "iers": 2279,
      "ĠFebruary": 2280,
      "Ġapplic": 2281,
      "Ġknow": 2282,
      "chie": 2283,
      "Ġreferred": 2284,
      "ma": 2285,
      "Ġfeatures": 2286,
      "Ġreported": 2287,
      "Ġpoin": 2288,
      "Ġprob": 2289,
      "Ġtypically": 2290,
      "roy": 2291,
      "Ġsurv": 2292,
      "Ġrights": 2293,
      "Ġtrib": 2294,
      "amples": 2295,
      "Ġtelevision": 2296,
      "hest": 2297,
      "anted": 2298,
      "Ġvalue": 2299,
      "iles": 2300,
      "Ġallowed": 2301,
      "Ġbuilding": 2302,
      "ĠCaliforn": 2303,
      "atives": 2304,
      "Ġlack": 2305,
      "ourt": 2306,
      "ounter": 2307,
      "yr": 2308,
      "oted": 2309,
      "Ġrespons": 2310,
      "Ġstri": 2311,
      "Ġtradition": 2312,
      "ĠState": 2313,
      "Ġdefe": 2314,
      "ush": 2315,
      "ocr": 2316,
      "Ġtravel": 2317,
      "Ġcross": 2318,
      "Ġfar": 2319,
      "Ġcompan": 2320,
      "Ġsurface": 2321,
      "medi": 2322,
      "Ġstory": 2323,
      "Ġwhose": 2324,
      "cast": 2325,
      "att": 2326,
      "Ġfri": 2327,
      "ideo": 2328,
      "Ġcontinu": 2329,
      "Ġbr": 2330,
      "ĠCamb": 2331,
      "Ġcrew": 2332,
      "Ġfall": 2333,
      "ibility": 2334,
      "Ġstructure": 2335,
      "Ġcontrib": 2336,
      "Ġfund": 2337,
      "Ġonce": 2338,
      "Ġste": 2339,
      "Ġdeg": 2340,
      "Ġspecific": 2341,
      "Ġrequired": 2342,
      "Ġwords": 2343,
      "ĠIndian": 2344,
      "imately": 2345,
      "ĠCatholic": 2346,
      "ream": 2347,
      "Ġrespect": 2348,
      "ĠGermany": 2349,
      "Ġschol": 2350,
      "born": 2351,
      "uel": 2352,
      "oral": 2353,
      "ties": 2354,
      "iverse": 2355,
      "Ġsize": 2356,
      "iting": 2357,
      "uth": 2358,
      "ara": 2359,
      "ĠArch": 2360,
      "Ġbooks": 2361,
      "Ġreligious": 2362,
      "ĠCong": 2363,
      "ĠFrom": 2364,
      "Ġservices": 2365,
      "ĠColle": 2366,
      "clus": 2367,
      "Ġmight": 2368,
      "Ġ190": 2369,
      "ysis": 2370,
      "ĠCalifornia": 2371,
      "Ġserved": 2372,
      "rought": 2373,
      "Ġadminist": 2374,
      "ĠPark": 2375,
      "Ġscience": 2376,
      "Ġ(\"": 2377,
      "ĠTur": 2378,
      "anish": 2379,
      "ĠMe": 2380,
      "II": 2381,
      "Ġstar": 2382,
      "ĠLeague": 2383,
      "Ġinteg": 2384,
      "istry": 2385,
      "Ġmach": 2386,
      "Ġremained": 2387,
      "oll": 2388,
      "Ġuses": 2389,
      "Ġdisp": 2390,
      "ederal": 2391,
      "ume": 2392,
      "uck": 2393,
      "50": 2394,
      "ĠCro": 2395,
      "Ġ2007": 2396,
      "Ġcommonly": 2397,
      "ĠWe": 2398,
      "ixed": 2399,
      "lying": 2400,
      "Ġtypes": 2401,
      "ĠPer": 2402,
      "Ġ186": 2403,
      "Ġlo": 2404,
      "ĠMc": 2405,
      "Ġmeet": 2406,
      "Ġbelieved": 2407,
      "ulf": 2408,
      "Ġfig": 2409,
      "Ġhouse": 2410,
      "oses": 2411,
      "Ġindustry": 2412,
      "Ġprevent": 2413,
      "Ġevents": 2414,
      "Ġcommunic": 2415,
      "Ġgre": 2416,
      "Ġ1990": 2417,
      "Ġmeaning": 2418,
      "Ġstyle": 2419,
      "Ġprovided": 2420,
      "ĠAtlant": 2421,
      "itch": 2422,
      "ols": 2423,
      "aps": 2424,
      "Ġvict": 2425,
      "Ġmechan": 2426,
      "ems": 2427,
      "ĠSea": 2428,
      "Ġill": 2429,
      "ington": 2430,
      "rial": 2431,
      "ĠEm": 2432,
      "Ġjud": 2433,
      "Ġannounced": 2434,
      "Ġwhite": 2435,
      "Ġincreasing": 2436,
      "itect": 2437,
      "Ġpen": 2438,
      "Ġnuc": 2439,
      "Ġcommercial": 2440,
      "Ġelement": 2441,
      "Ġtour": 2442,
      "Ġlarger": 2443,
      "Ġemer": 2444,
      "Ġbehav": 2445,
      "ĠRober": 2446,
      "ength": 2447,
      "uries": 2448,
      "Ġcause": 2449,
      "ĠSan": 2450,
      "ĠCharles": 2451,
      "ĠReg": 2452,
      "Ġkilled": 2453,
      "Ġnorthern": 2454,
      "Ġsite": 2455,
      "Ġnecess": 2456,
      "ires": 2457,
      "ulated": 2458,
      "Ġrule": 2459,
      "Ġeffects": 2460,
      "ĠSchool": 2461,
      "Ġmoved": 2462,
      "Ġmission": 2463,
      "Ġinterp": 2464,
      "Ġcampaign": 2465,
      "ĠPal": 2466,
      "ĠPort": 2467,
      "Ġdefin": 2468,
      "wood": 2469,
      "Ġrock": 2470,
      "Ġquest": 2471,
      "lim": 2472,
      "Ġwhether": 2473,
      "Ġ2006": 2474,
      "Ġprin": 2475,
      "Ġ21": 2476,
      "su": 2477,
      "Ġlost": 2478,
      "199": 2479,
      "Ġsource": 2480,
      "Ġdou": 2481,
      "iding": 2482,
      "Ġord": 2483,
      "Ġdesigned": 2484,
      "Ġcritic": 2485,
      "irth": 2486,
      "go": 2487,
      "Ġtransport": 2488,
      "Ġwidely": 2489,
      "Ġgod": 2490,
      "omm": 2491,
      "Ġ30": 2492,
      "ership": 2493,
      "Ġconsider": 2494,
      "Ġaud": 2495,
      "orph": 2496,
      "Ġput": 2497,
      "Ġdomin": 2498,
      "off": 2499,
      "ĠGeorge": 2500,
      "Ġpast": 2501,
      "istance": 2502,
      "Ġgave": 2503,
      "ĠJames": 2504,
      "Ġ2010": 2505,
      "oney": 2506,
      "Ġ1980": 2507,
      "ophy": 2508,
      "Ġlog": 2509,
      "Ġlonger": 2510,
      "Ġachie": 2511,
      "Ġang": 2512,
      "Ġlegal": 2513,
      "ourn": 2514,
      "Ġoutside": 2515,
      "Ġlittle": 2516,
      "based": 2517,
      "ference": 2518,
      "het": 2519,
      "Ġnature": 2520,
      "Ġ2000": 2521,
      "Ġlive": 2522,
      "Ġchurch": 2523,
      "Ġpred": 2524,
      "Ġproduce": 2525,
      "Ġprivate": 2526,
      "Ġcaused": 2527,
      "Ġpurp": 2528,
      "ĠParty": 2529,
      "selves": 2530,
      "Ġmother": 2531,
      "Ġrail": 2532,
      "Ġincreased": 2533,
      "Ġstarted": 2534,
      "anks": 2535,
      "Ġfem": 2536,
      "Ġtarget": 2537,
      "Ġwent": 2538,
      "ĠCourt": 2539,
      "Ġsuff": 2540,
      "Ġ2008": 2541,
      "ranch": 2542,
      "Ġdistrib": 2543,
      "Ġ1970": 2544,
      "Ġsymb": 2545,
      "ilities": 2546,
      "ĠThom": 2547,
      "Ġcarbon": 2548,
      "Ġbrought": 2549,
      "ental": 2550,
      "Ġ2011": 2551,
      "Ġsqu": 2552,
      "Ġblood": 2553,
      "Ġhealth": 2554,
      "ĠNo": 2555,
      "Ġeventually": 2556,
      "ĠUK": 2557,
      "Ġastron": 2558,
      "Ġaway": 2559,
      "Ġ2009": 2560,
      "ibrary": 2561,
      "Ġenvironment": 2562,
      "Ġreb": 2563,
      "ĠPresident": 2564,
      "Ġ[": 2565,
      "Ġremains": 2566,
      "view": 2567,
      "Ġconditions": 2568,
      "Ġviol": 2569,
      "ĠCont": 2570,
      "Ġwriting": 2571,
      "Ġleading": 2572,
      "Ġlikely": 2573,
      "Ġsat": 2574,
      "ĠGeneral": 2575,
      "itute": 2576,
      "Ġgra": 2577,
      "aching": 2578,
      "anese": 2579,
      "Ġdial": 2580,
      "Ġappeared": 2581,
      "\")": 2582,
      "Ġmathem": 2583,
      "Ġindependent": 2584,
      "Ġeducation": 2585,
      "Ġfle": 2586,
      "ĠDem": 2587,
      "ills": 2588,
      "eleb": 2589,
      "anced": 2590,
      "Ġrelationship": 2591,
      "Ġcities": 2592,
      "light": 2593,
      "Ġchanges": 2594,
      "oice": 2595,
      "ĠAsia": 2596,
      "Ġadded": 2597,
      "reet": 2598,
      "Ġelection": 2599,
      "Ġradio": 2600,
      "ores": 2601,
      "Ġcode": 2602,
      "Ġreturned": 2603,
      "ĠSte": 2604,
      "Ġeffort": 2605,
      "Ġrequire": 2606,
      "Ġreplaced": 2607,
      "Ġhydro": 2608,
      "otic": 2609,
      "Ġsea": 2610,
      "rate": 2611,
      "Ġcoll": 2612,
      "itiz": 2613,
      "ĠGovern": 2614,
      "Ġregions": 2615,
      "Ġproblems": 2616,
      "hing": 2617,
      "Ġclear": 2618,
      "Ġet": 2619,
      "Ġthemselves": 2620,
      "Ġproblem": 2621,
      "Ġsoftware": 2622,
      "Ġsouthern": 2623,
      "ufact": 2624,
      "amer": 2625,
      "ĠHigh": 2626,
      "Ġphysical": 2627,
      "Ġvir": 2628,
      "Ġ1960": 2629,
      "Ġanimals": 2630,
      "Ġself": 2631,
      "Ġwest": 2632,
      "Ġacid": 2633,
      "Ġparticip": 2634,
      "Ġeas": 2635,
      "Ġconver": 2636,
      "ricult": 2637,
      "Ġ189": 2638,
      "Ġaction": 2639,
      "ĠRoyal": 2640,
      "Ġmanufact": 2641,
      "ett": 2642,
      "irit": 2643,
      "Ġcompanies": 2644,
      "Ġcost": 2645,
      "uture": 2646,
      "Ġcondu": 2647,
      "pper": 2648,
      "acters": 2649,
      "Ġvariety": 2650,
      "Ġeast": 2651,
      "Ġdefined": 2652,
      "asion": 2653,
      "Ġreason": 2654,
      "ĠAD": 2655,
      "Ġpractice": 2656,
      "ĠBay": 2657,
      "iff": 2658,
      "Ġquant": 2659,
      "Ġrecorded": 2660,
      "Ġten": 2661,
      "ows": 2662,
      "ques": 2663,
      "Ġmonths": 2664,
      "Ġlimited": 2665,
      "Ġdig": 2666,
      "ĠBur": 2667,
      "Ġfounded": 2668,
      "lied": 2669,
      "mar": 2670,
      "Ġspeak": 2671,
      "Ġpoly": 2672,
      "Ġfight": 2673,
      "ĠColumb": 2674,
      "ael": 2675,
      "Ġbank": 2676,
      "ĠGl": 2677,
      "aval": 2678,
      "Ġbrother": 2679,
      "Ġdom": 2680,
      "ump": 2681,
      "elling": 2682,
      "Ġsubsequ": 2683,
      "Ġalways": 2684,
      "Ġris": 2685,
      "Ġsay": 2686,
      "ĠHen": 2687,
      "Ġcharacters": 2688,
      "Ġestablish": 2689,
      "onse": 2690,
      "itor": 2691,
      "odes": 2692,
      "Ġmajority": 2693,
      "ĠTrans": 2694,
      "cies": 2695,
      "Ġcontro": 2696,
      "isms": 2697,
      "icles": 2698,
      "oul": 2699,
      "Ġsaw": 2700,
      "ĠMor": 2701,
      "ĠPaul": 2702,
      "Ġvideo": 2703,
      "Ġclub": 2704,
      "Ġforeign": 2705,
      "ĠAC": 2706,
      "Ġstated": 2707,
      "Ġdam": 2708,
      "Ġgrad": 2709,
      "Ġamount": 2710,
      "Ġcultural": 2711,
      "resp": 2712,
      "Ġess": 2713,
      "ĠDay": 2714,
      "Ġregular": 2715,
      "ĠIsrael": 2716,
      "artment": 2717,
      "Ġdise": 2718,
      "ĠFrank": 2719,
      "Ġchemical": 2720,
      "Ġtowards": 2721,
      "Ġhon": 2722,
      "Ġalg": 2723,
      "Ġinvolved": 2724,
      "Ġcome": 2725,
      "Ġpercent": 2726,
      "Ġapprox": 2727,
      "ĠBattle": 2728,
      "Ġhom": 2729,
      "Ġsmaller": 2730,
      "Ġdirectly": 2731,
      "ike": 2732,
      "Ġche": 2733,
      "ror": 2734,
      "irds": 2735,
      "Ġpersonal": 2736,
      "Ġarchitect": 2737,
      "ĠMich": 2738,
      "alled": 2739,
      "phas": 2740,
      "Ġhistorical": 2741,
      "Ġterritory": 2742,
      "isions": 2743,
      "Ġ2005": 2744,
      "ulg": 2745,
      "Ġstation": 2746,
      "Ġ2014": 2747,
      "Ġdistinct": 2748,
      "ĠRussian": 2749,
      "Ġaward": 2750,
      "berg": 2751,
      "ously": 2752,
      "Ġ2012": 2753,
      "ali": 2754,
      "Ġconstitution": 2755,
      "Ġlines": 2756,
      "ĠBen": 2757,
      "ĠBab": 2758,
      "och": 2759,
      "Ġceleb": 2760,
      "Ġtoo": 2761,
      "Ġtoday": 2762,
      "ĠMount": 2763,
      "ects": 2764,
      "Ġ2013": 2765,
      "Ġprimary": 2766,
      "Ġtitle": 2767,
      "Ġtreatment": 2768,
      "Ġdyn": 2769,
      "utive": 2770,
      "Ġ25": 2771,
      "key": 2772,
      "18": 2773,
      "itude": 2774,
      "sych": 2775,
      "Ġremov": 2776,
      "rang": 2777,
      "Ġ100": 2778,
      "Ġopt": 2779,
      "Ġadapt": 2780,
      "Ġyoung": 2781,
      "vention": 2782,
      "Ġincrease": 2783,
      "known": 2784,
      "Ġnames": 2785,
      "ĠHol": 2786,
      "ands": 2787,
      "ression": 2788,
      "Ġearlier": 2789,
      "igned": 2790,
      "ounds": 2791,
      "Ġmostly": 2792,
      "ux": 2793,
      "ĠAfgh": 2794,
      "Ġveh": 2795,
      "ĠRobert": 2796,
      "Ġaver": 2797,
      "ĠMod": 2798,
      "ĠIts": 2799,
      "Ġnar": 2800,
      "ests": 2801,
      "peror": 2802,
      "Ġresults": 2803,
      "Ġax": 2804,
      "aria": 2805,
      "Ġur": 2806,
      "anded": 2807,
      "ĠRich": 2808,
      "Ġspok": 2809,
      "ection": 2810,
      "Ġfish": 2811,
      "asc": 2812,
      "ĠSim": 2813,
      "ables": 2814,
      "ledge": 2815,
      "Ġbene": 2816,
      "ste": 2817,
      "ĠSpe": 2818,
      "uk": 2819,
      "Ġfront": 2820,
      "ĠPat": 2821,
      "nel": 2822,
      "Ġsitu": 2823,
      "Ġlay": 2824,
      "ĠMuseum": 2825,
      "Ġproducts": 2826,
      "Ġdestroy": 2827,
      "ha": 2828,
      "rative": 2829,
      "Ġborn": 2830,
      "porary": 2831,
      "Ġplaced": 2832,
      "Ġsett": 2833,
      "Ġoccup": 2834,
      "Ġgun": 2835,
      "istics": 2836,
      "Ġalc": 2837,
      "abit": 2838,
      "Ġcommit": 2839,
      "ĠQu": 2840,
      "Ġgold": 2841,
      "ĠAlbert": 2842,
      "Ġelected": 2843,
      "Ġseparate": 2844,
      "Ġ188": 2845,
      "Ġphot": 2846,
      "iter": 2847,
      "agn": 2848,
      "Ġsequ": 2849,
      "ĠAnother": 2850,
      "Ġacqu": 2851,
      "field": 2852,
      "Ġeight": 2853,
      "Ġstudies": 2854,
      "Ġ2017": 2855,
      "Ġsil": 2856,
      "Ġlength": 2857,
      "ĠCons": 2858,
      "ishop": 2859,
      "ios": 2860,
      "Ġsal": 2861,
      "aint": 2862,
      "Ġmultiple": 2863,
      "ault": 2864,
      "Ġliving": 2865,
      "ĠMy": 2866,
      "Ġconstruction": 2867,
      "respond": 2868,
      "ĠBut": 2869,
      "Ġoperations": 2870,
      "Ġ2020": 2871,
      "Ġdiscuss": 2872,
      "iences": 2873,
      "ĠSam": 2874,
      "throp": 2875,
      "Ġislands": 2876,
      "unar": 2877,
      "Ġalle": 2878,
      "onic": 2879,
      "rick": 2880,
      "ĠIslands": 2881,
      "Ġfunctions": 2882,
      "isation": 2883,
      "ago": 2884,
      "see": 2885,
      "Ġproposed": 2886,
      "Ġoriginally": 2887,
      "ĠApple": 2888,
      "ĠBudd": 2889,
      "Ġresponse": 2890,
      "Ġdocument": 2891,
      "ĠCongress": 2892,
      "Ġcut": 2893,
      "Ġworking": 2894,
      "Ġmetal": 2895,
      "Ġtroops": 2896,
      "Ġ187": 2897,
      "Ġboard": 2898,
      "oe": 2899,
      "ĠEastern": 2900,
      "Ġlargely": 2901,
      "Ġnetwork": 2902,
      "Ġbeginning": 2903,
      "ky": 2904,
      "Ġtransl": 2905,
      "Ġsources": 2906,
      "Ġtax": 2907,
      "Ġ2004": 2908,
      "Ġrules": 2909,
      "ĠCollege": 2910,
      "Ġgreater": 2911,
      "ements": 2912,
      "Ġrap": 2913,
      "ĠIslam": 2914,
      "Ġunits": 2915,
      "ancial": 2916,
      "obal": 2917,
      "rus": 2918,
      "izing": 2919,
      "Ġ2001": 2920,
      "oz": 2921,
      "Ġtechnology": 2922,
      "Ġpolicy": 2923,
      "year": 2924,
      "Ġhit": 2925,
      "Ġ2016": 2926,
      "Ġproperties": 2927,
      "Ġflight": 2928,
      "Ġ24": 2929,
      "Ġnumerous": 2930,
      "Ġeconomy": 2931,
      "Ġschools": 2932,
      "rel": 2933,
      "ĠFirst": 2934,
      "ivity": 2935,
      "Ġdiscovered": 2936,
      "Ġfuture": 2937,
      "Ġmethods": 2938,
      "Ġmagn": 2939,
      "Ġadopted": 2940,
      "Ġpoints": 2941,
      "'t": 2942,
      "pected": 2943,
      "Ġunit": 2944,
      "Ġdivided": 2945,
      "Ġcreat": 2946,
      "Ġbelow": 2947,
      "ĠDep": 2948,
      "ĠGold": 2949,
      "Ġseven": 2950,
      "Ġcolor": 2951,
      "Ġreview": 2952,
      "ĠGro": 2953,
      "Ġaddress": 2954,
      "Ġsurround": 2955,
      "anned": 2956,
      "Ġsaf": 2957,
      "Ġplants": 2958,
      "ready": 2959,
      "embly": 2960,
      "jan": 2961,
      "ĠOld": 2962,
      "Ġunderstand": 2963,
      "Ġoffice": 2964,
      "arent": 2965,
      "ĠAfghan": 2966,
      "ech": 2967,
      "isl": 2968,
      "Ġbetter": 2969,
      "Ġanalysis": 2970,
      "aughter": 2971,
      "Ġsac": 2972,
      "aged": 2973,
      "airs": 2974,
      "ĠBatman": 2975,
      "Ġhighest": 2976,
      "Ġlook": 2977,
      "ili": 2978,
      "Ġcreate": 2979,
      "Ġgive": 2980,
      "ĠJe": 2981,
      "ĠIsland": 2982,
      "ĠAssoci": 2983,
      "Ġgrowth": 2984,
      "ĠAcadem": 2985,
      "Ġbound": 2986,
      "ĠRed": 2987,
      "ients": 2988,
      "Ġthreat": 2989,
      "onst": 2990,
      "Ġrecent": 2991,
      "Ġimplement": 2992,
      "Ġperformed": 2993,
      "ĠScott": 2994,
      "axim": 2995,
      "nd": 2996,
      "Ġsem": 2997,
      "Ġcateg": 2998,
      "Ġvia": 2999,
      "Ġcorrespond": 3000,
      "omy": 3001,
      "Ġgas": 3002,
      "Ġoil": 3003,
      "Ġepis": 3004,
      "curity": 3005,
      "time": 3006,
      "Ġsociety": 3007,
      "ĠHistor": 3008,
      "Ġcust": 3009,
      "orial": 3010,
      "Ġconcent": 3011,
      "aling": 3012,
      "rying": 3013,
      "Ġ2018": 3014,
      "Ġemb": 3015,
      "Ġidea": 3016,
      "men": 3017,
      "rim": 3018,
      "Ġ2015": 3019,
      "Ġheav": 3020,
      "Ġcenturies": 3021,
      "spe": 3022,
      "now": 3023,
      "Ġminor": 3024,
      "ĠSpanish": 3025,
      "Ġhous": 3026,
      "osing": 3027,
      "utch": 3028,
      "Ġvill": 3029,
      "17": 3030,
      "met": 3031,
      "Ġhighly": 3032,
      "Ġsupported": 3033,
      "ension": 3034,
      "na": 3035,
      "ĠMal": 3036,
      "Ġcells": 3037,
      "Ġfarm": 3038,
      "Ġships": 3039,
      "Ġmedia": 3040,
      "Ġshown": 3041,
      "Ġstudents": 3042,
      "ĠHenry": 3043,
      "Ġdri": 3044,
      "ext": 3045,
      "ĠJewish": 3046,
      "Ġcompon": 3047,
      "ferred": 3048,
      "Ġlaws": 3049,
      "Ġlab": 3050,
      "Ġloss": 3051,
      "Ġcannot": 3052,
      "Ġtraining": 3053,
      ".)": 3054,
      "ĠBu": 3055,
      "Ġalready": 3056,
      "olved": 3057,
      "Ġstage": 3058,
      "30": 3059,
      "anc": 3060,
      "aring": 3061,
      "Ġlatter": 3062,
      "Ġmathemat": 3063,
      "Ġdrug": 3064,
      "ĠMass": 3065,
      "rane": 3066,
      "Ġrelease": 3067,
      "Ġriver": 3068,
      "Ġrelatively": 3069,
      "Ġhor": 3070,
      "Ġrate": 3071,
      "ampions": 3072,
      "pro": 3073,
      "Ġwind": 3074,
      "icated": 3075,
      "Ġscript": 3076,
      "Ġadditional": 3077,
      "west": 3078,
      "Ġwall": 3079,
      "gebra": 3080,
      "Ġplant": 3081,
      "Ġcred": 3082,
      "Ġpun": 3083,
      "ĠJack": 3084,
      "Ġimmedi": 3085,
      "Ġactive": 3086,
      "Ġobtain": 3087,
      "Ġestim": 3088,
      "Ġneigh": 3089,
      "Ġ2019": 3090,
      "Ġbelief": 3091,
      "enes": 3092,
      "ston": 3093,
      "ĠNorthern": 3094,
      "Ġens": 3095,
      "Ġ2021": 3096,
      "Ġwestern": 3097,
      "erson": 3098,
      "ĠRev": 3099,
      "Ġmention": 3100,
      "Ġtherefore": 3101,
      "Ġfocus": 3102,
      "ked": 3103,
      "hel": 3104,
      "ises": 3105,
      "Ġenough": 3106,
      "ey": 3107,
      "Ġcast": 3108,
      "urches": 3109,
      "ider": 3110,
      "ĠMet": 3111,
      "Ġdetail": 3112,
      "Ġcollection": 3113,
      "bre": 3114,
      "ta": 3115,
      "ĠMac": 3116,
      "Ġ26": 3117,
      "Ġprior": 3118,
      "Ġwhom": 3119,
      "Ġheart": 3120,
      "Ġagricult": 3121,
      "Ġconflic": 3122,
      "Ġalternative": 3123,
      "change": 3124,
      "Ġunivers": 3125,
      "ĠHistory": 3126,
      "10": 3127,
      "Ġwood": 3128,
      "asons": 3129,
      "oles": 3130,
      "Ġrare": 3131,
      "Ġmedic": 3132,
      "ĠJapanese": 3133,
      "ĠNet": 3134,
      "Ġprimarily": 3135,
      "ĠSmith": 3136,
      "eds": 3137,
      "omp": 3138,
      "omer": 3139,
      "unity": 3140,
      "ĠHall": 3141,
      "Ġperformance": 3142,
      "ĠMiddle": 3143,
      "odies": 3144,
      "ĠAlexand": 3145,
      "burg": 3146,
      "part": 3147,
      "Ġbirth": 3148,
      "aches": 3149,
      "ĠJer": 3150,
      "Ġpath": 3151,
      "cont": 3152,
      "Ġscholars": 3153,
      "cher": 3154,
      "ointed": 3155,
      "Ġchanged": 3156,
      "ithm": 3157,
      "ords": 3158,
      "Ġwife": 3159,
      "Ġ()": 3160,
      "ĠRad": 3161,
      "ĠQue": 3162,
      "Ġcounter": 3163,
      "Ġcitiz": 3164,
      "ĠLaw": 3165,
      "ĠIII": 3166,
      "Ġindependence": 3167,
      "ĠBal": 3168,
      "ĠBell": 3169,
      "Ġbur": 3170,
      "Ġkeep": 3171,
      "Ġsuggested": 3172,
      "fficient": 3173,
      "Ġ2003": 3174,
      "Ġpotential": 3175,
      "OS": 3176,
      "war": 3177,
      "Ġdone": 3178,
      "Ġdisplay": 3179,
      "Ġmemory": 3180,
      "Ġrepresented": 3181,
      "Ġproperty": 3182,
      "Ġget": 3183,
      "Ġcontrast": 3184,
      "Ġ1999": 3185,
      "Ġbasis": 3186,
      "Ġactivity": 3187,
      "Ġpsych": 3188,
      "ĠVir": 3189,
      "Ġreached": 3190,
      "olk": 3191,
      "ij": 3192,
      "Ġslow": 3193,
      "ĠBig": 3194,
      "reng": 3195,
      "Ġlocation": 3196,
      "Ġprec": 3197,
      "inn": 3198,
      "ĠItaly": 3199,
      "ĠZe": 3200,
      "ls": 3201,
      "aled": 3202,
      "ĠAward": 3203,
      "ift": 3204,
      "ĠWash": 3205,
      "Ġyou": 3206,
      "Ġconsum": 3207,
      "Ġcenter": 3208,
      "Ġesc": 3209,
      "Ġissue": 3210,
      "ĠCat": 3211,
      "igen": 3212,
      "owers": 3213,
      "ĠPri": 3214,
      "Ġspread": 3215,
      "Ġquick": 3216,
      "Ġlevels": 3217,
      "Ġpressure": 3218,
      "ĠSen": 3219,
      "vert": 3220,
      "Ġantib": 3221,
      "Ġclaimed": 3222,
      "Ġatom": 3223,
      "Ġship": 3224,
      "Ġexpans": 3225,
      "Ġenter": 3226,
      "Ġaverage": 3227,
      "Ġever": 3228,
      "umn": 3229,
      "pped": 3230,
      "Ġstatus": 3231,
      ");": 3232,
      "tt": 3233,
      "Ġhyp": 3234,
      "ulations": 3235,
      "opp": 3236,
      "Ġnoted": 3237,
      "Ġfell": 3238,
      "lected": 3239,
      "ĠSl": 3240,
      "uments": 3241,
      "Ġdiss": 3242,
      "198": 3243,
      "Ġincor": 3244,
      "Ġsettle": 3245,
      "back": 3246,
      "osaur": 3247,
      "ĠBulg": 3248,
      "cles": 3249,
      "Ġcontains": 3250,
      "Ġwhole": 3251,
      "Ġsens": 3252,
      "ĠVal": 3253,
      "Ġmeasure": 3254,
      "Ġcard": 3255,
      "itors": 3256,
      "Ġmole": 3257,
      "ĠIm": 3258,
      "ĠWall": 3259,
      "Ġ2002": 3260,
      "Ġpie": 3261,
      "Ġhun": 3262,
      "Ġcentre": 3263,
      "Ġblue": 3264,
      "Ġmainly": 3265,
      "lines": 3266,
      "Ġcarried": 3267,
      "Ġ1950": 3268,
      "ging": 3269,
      "Ġintended": 3270,
      "Ġobjects": 3271,
      "Ġmaterials": 3272,
      "Ġdraw": 3273,
      "Ġnation": 3274,
      "Ġextreme": 3275,
      "Ġmatter": 3276,
      "ĠArmen": 3277,
      "Ġopened": 3278,
      "Ġforced": 3279,
      "Ġappears": 3280,
      "edy": 3281,
      "Ġexperience": 3282,
      "Ġcareer": 3283,
      "Ġdegree": 3284,
      "reland": 3285,
      "Ġsense": 3286,
      "cean": 3287,
      "Ġprovides": 3288,
      "Ġinitial": 3289,
      "Ġbehavior": 3290,
      "ĠRo": 3291,
      "Ġkind": 3292,
      "ĠScot": 3293,
      "Ġfinancial": 3294,
      "ĠArabic": 3295,
      "ĠAcademy": 3296,
      "ĠAS": 3297,
      "Ġscientific": 3298,
      "ĠWashington": 3299,
      "ee": 3300,
      "onia": 3301,
      "Ġpresence": 3302,
      "Ġbreak": 3303,
      "ĠRichard": 3304,
      "amm": 3305,
      "ĠFre": 3306,
      "Ġcontem": 3307,
      "Ġprofessional": 3308,
      "ĠThomas": 3309,
      "Ġcoin": 3310,
      "Ġnearly": 3311,
      "ĠCa": 3312,
      "ĠSociety": 3313,
      "IC": 3314,
      "Ġconqu": 3315,
      "Ġleader": 3316,
      "Ġfootball": 3317,
      "Ġpeace": 3318,
      "Ġweap": 3319,
      "Ġshows": 3320,
      "Ġissues": 3321,
      "ias": 3322,
      "ellig": 3323,
      "Ġinfluenced": 3324,
      "head": 3325,
      "Ġimpact": 3326,
      "Ġrapid": 3327,
      "Ġsoon": 3328,
      "alian": 3329,
      "Ġmakes": 3330,
      "ĠTer": 3331,
      "ĠDutch": 3332,
      "estival": 3333,
      "ĠOly": 3334,
      "rupt": 3335,
      "NA": 3336,
      "erve": 3337,
      "ĠIreland": 3338,
      "osis": 3339,
      "Ġi": 3340,
      "Ġquestion": 3341,
      "ĠMore": 3342,
      "Ġpay": 3343,
      "imal": 3344,
      "Ġresulting": 3345,
      "Ġemp": 3346,
      "Ġdemonst": 3347,
      "Ġblock": 3348,
      "ournal": 3349,
      "ĠParliament": 3350,
      "Ġfederal": 3351,
      "Ġalgebra": 3352,
      "Ġalgor": 3353,
      "Ġded": 3354,
      "Ġeastern": 3355,
      "Ġcreation": 3356,
      "ĠBak": 3357,
      "ĠFollow": 3358,
      "Ġamb": 3359,
      "Ġimprove": 3360,
      "Ġjoined": 3361,
      "ĠInter": 3362,
      "ĠLa": 3363,
      "Ġexperiment": 3364,
      "Ġearliest": 3365,
      "Ġethn": 3366,
      "ĠOlymp": 3367,
      "cks": 3368,
      "hood": 3369,
      "ply": 3370,
      "Ġworked": 3371,
      "ĠForce": 3372,
      "Ġera": 3373,
      "ocratic": 3374,
      "Ġmachine": 3375,
      "ĠBBC": 3376,
      "Ġstreng": 3377,
      "Ġability": 3378,
      "Ġprobably": 3379,
      "erc": 3380,
      "Ġbor": 3381,
      "Ġinj": 3382,
      "ĠInt": 3383,
      "iance": 3384,
      "Ġspirit": 3385,
      "ĠAmericans": 3386,
      "Ġtemperature": 3387,
      "actions": 3388,
      "Ġpassed": 3389,
      "ĠCambridge": 3390,
      "rument": 3391,
      "Ġtable": 3392,
      "Ġwat": 3393,
      "ĠAssociation": 3394,
      "heast": 3395,
      "ĠCyp": 3396,
      "ĠPeter": 3397,
      "Ġ184": 3398,
      "Ġhumans": 3399,
      "Ġpoor": 3400,
      "ĠCommon": 3401,
      "ĠRussia": 3402,
      "Ġsus": 3403,
      "Ġmom": 3404,
      "iform": 3405,
      "ĠVict": 3406,
      "ĠBec": 3407,
      "ĠMuslim": 3408,
      "Ġhapp": 3409,
      "ĠCap": 3410,
      "ĠMart": 3411,
      "Ġtrue": 3412,
      "Ġeffective": 3413,
      "iques": 3414,
      "Ġletter": 3415,
      "Ġindividuals": 3416,
      "lem": 3417,
      "Ġheavy": 3418,
      "Ġresour": 3419,
      "Ġthous": 3420,
      "Ġ22": 3421,
      "Ġdecided": 3422,
      "Ġprotect": 3423,
      "ĠSouthern": 3424,
      "Ġpromin": 3425,
      "Ġregional": 3426,
      "ĠMichael": 3427,
      "SA": 3428,
      "ares": 3429,
      "ĠAsh": 3430,
      "Ġflu": 3431,
      "Ġbroadcast": 3432,
      "board": 3433,
      "12": 3434,
      "use": 3435,
      "ĠLou": 3436,
      "Ġrank": 3437,
      "astic": 3438,
      "Ġvalues": 3439,
      "Ġneeded": 3440,
      "Ġtend": 3441,
      "Ġdivision": 3442,
      "ĠFollowing": 3443,
      "vin": 3444,
      "ont": 3445,
      "Ġassum": 3446,
      "Ġcorre": 3447,
      "Ġforest": 3448,
      "ground": 3449,
      "riage": 3450,
      "ĠOx": 3451,
      "Ġauthority": 3452,
      "ĠLibrary": 3453,
      "uda": 3454,
      "ĠJews": 3455,
      "itutions": 3456,
      "ĠDel": 3457,
      "ibly": 3458,
      "tee": 3459,
      "Ġpattern": 3460,
      "aith": 3461,
      "water": 3462,
      "ĠBron": 3463,
      "igation": 3464,
      "ĠKn": 3465,
      "ĠDespite": 3466,
      "idents": 3467,
      "Ġsoldiers": 3468,
      "Ġfrequently": 3469,
      "oor": 3470,
      "tical": 3471,
      "Ġinh": 3472,
      "ĠBill": 3473,
      "Ġsearch": 3474,
      "Ġbecoming": 3475,
      "ĠBecause": 3476,
      "Ġtree": 3477,
      "ico": 3478,
      "ĠAut": 3479,
      "verse": 3480,
      "Ġcomposed": 3481,
      "Ġmedical": 3482,
      "Ġbasic": 3483,
      "ĠLiber": 3484,
      "Ġdecision": 3485,
      "Ġargued": 3486,
      "eder": 3487,
      "ĠStud": 3488,
      "ampionship": 3489,
      "ville": 3490,
      "igr": 3491,
      "Ġstep": 3492,
      "Ġweek": 3493,
      "Ġcontract": 3494,
      "ĠTwo": 3495,
      "Ġ1998": 3496,
      "Ġbehind": 3497,
      "inated": 3498,
      "ĠBoth": 3499,
      "Ġfamous": 3500,
      "ĠInstitute": 3501,
      "Ġexpansion": 3502,
      "ĠJapan": 3503,
      "oura": 3504,
      "irm": 3505,
      "Ġdaughter": 3506,
      "oud": 3507,
      "raction": 3508,
      "Ġattacks": 3509,
      "zil": 3510,
      "Ġcry": 3511,
      "ĠAber": 3512,
      "Ġplaying": 3513,
      "Ġ2022": 3514,
      "Ġtaking": 3515,
      "Ġpaper": 3516,
      "Ġsexual": 3517,
      "Ġlunar": 3518,
      "asty": 3519,
      "Ġspect": 3520,
      "Ġletters": 3521,
      "ĠCompany": 3522,
      "Ġult": 3523,
      "Ġ27": 3524,
      "ĠClass": 3525,
      "Ġir": 3526,
      "itz": 3527,
      "ĠPre": 3528,
      "undred": 3529,
      "Ġ...": 3530,
      "ĠIr": 3531,
      "Ġaccepted": 3532,
      "Ġlink": 3533,
      "ĠBank": 3534,
      "Ġenem": 3535,
      "Ġattrib": 3536,
      "Ġnecessary": 3537,
      "Ġrisk": 3538,
      "Ġ0": 3539,
      "Ġbacter": 3540,
      "Ġmoney": 3541,
      "Ġvary": 3542,
      "onds": 3543,
      "century": 3544,
      "Ġmarried": 3545,
      "ĠAnglic": 3546,
      "Ġcalcul": 3547,
      "Ġfeatured": 3548,
      "den": 3549,
      "rog": 3550,
      "ressed": 3551,
      "Ġu": 3552,
      "ĠRome": 3553,
      "Ġyet": 3554,
      "ĠSecond": 3555,
      "Ġavoid": 3556,
      "Ġfailed": 3557,
      "ka": 3558,
      "ras": 3559,
      "enic": 3560,
      "Ġdate": 3561,
      "otes": 3562,
      "ĠMoon": 3563,
      "Ġdeep": 3564,
      "ested": 3565,
      "Ġ23": 3566,
      "rown": 3567,
      "rief": 3568,
      "izations": 3569,
      "Ġappointed": 3570,
      "Ġallows": 3571,
      "Ġidentified": 3572,
      "Ġactivities": 3573,
      "eties": 3574,
      "Ġprograms": 3575,
      "Ġcand": 3576,
      "Ġey": 3577,
      "ĠFl": 3578,
      "Ġemphas": 3579,
      "win": 3580,
      "Ġnative": 3581,
      "Ġaspect": 3582,
      "Ġinn": 3583,
      "Ġburn": 3584,
      "ĠUnder": 3585,
      "ĠArist": 3586,
      "Ġoperation": 3587,
      "Ġalcoh": 3588,
      "Ġour": 3589,
      "197": 3590,
      "ĠSystem": 3591,
      "bed": 3592,
      "rical": 3593,
      "ĠThat": 3594,
      "Ġ50": 3595,
      "Ġsynthe": 3596,
      "Ġlaunch": 3597,
      "Ġmicro": 3598,
      "vey": 3599,
      "uman": 3600,
      "Ġround": 3601,
      "Ġinstrument": 3602,
      "annel": 3603,
      "ygen": 3604,
      "Ġmis": 3605,
      "Ġchief": 3606,
      "Ġbuildings": 3607,
      "ĠCanadian": 3608,
      "ĠBerlin": 3609,
      "Ġresponsible": 3610,
      "ully": 3611,
      "ĠDis": 3612,
      "Ġapplied": 3613,
      "Ġcompleted": 3614,
      "Ġpreviously": 3615,
      "unicip": 3616,
      "Ġknowledge": 3617,
      "bour": 3618,
      "ned": 3619,
      "Ġconsequ": 3620,
      "Ġchurches": 3621,
      "azine": 3622,
      "comp": 3623,
      "ĠĠĠĠ": 3624,
      "iated": 3625,
      "Ġdiscover": 3626,
      "Ġcombined": 3627,
      "Ġtakes": 3628,
      "alle": 3629,
      "ola": 3630,
      "ĠMinister": 3631,
      "writ": 3632,
      "wide": 3633,
      "yond": 3634,
      "Ġspl": 3635,
      "itation": 3636,
      "Ġreform": 3637,
      "Ġgraph": 3638,
      "ĠDan": 3639,
      "Ġsec": 3640,
      "Ġconstant": 3641,
      "Ġpossess": 3642,
      ",\"": 3643,
      "ĠTex": 3644,
      "Ġalph": 3645,
      "Ġsection": 3646,
      "ĠStreet": 3647,
      "crete": 3648,
      "Ġideas": 3649,
      "Ġdisease": 3650,
      "Ġut": 3651,
      "ented": 3652,
      "Ġchall": 3653,
      "Ġconsists": 3654,
      "ĠBrazil": 3655,
      "icted": 3656,
      "Ġdr": 3657,
      "ĠBeng": 3658,
      "Ġdistingu": 3659,
      "ĠColumbia": 3660,
      "Ġbrain": 3661,
      "Ġcompared": 3662,
      "Ġtechniques": 3663,
      "ship": 3664,
      "Ġcollect": 3665,
      "Ġmix": 3666,
      "Ġliterature": 3667,
      "ien": 3668,
      "Ġbomb": 3669,
      "Ġdram": 3670,
      "Ġdecre": 3671,
      "ĠThus": 3672,
      "Ġformal": 3673,
      "Ġdirected": 3674,
      "ĠJohnson": 3675,
      "Ġinitially": 3676,
      "Ġderived": 3677,
      "van": 3678,
      "itan": 3679,
      "Ġretain": 3680,
      "odox": 3681,
      "ĠWil": 3682,
      "perial": 3683,
      "Ġdistrict": 3684,
      "ĠAthens": 3685,
      "Ġbra": 3686,
      "Ġface": 3687,
      "Ġexamples": 3688,
      "Ġrise": 3689,
      "ĠCroat": 3690,
      "Ġharm": 3691,
      "ĠItalian": 3692,
      "Ġsimple": 3693,
      "Ġaim": 3694,
      "enth": 3695,
      "Ġreject": 3696,
      "eles": 3697,
      "Ġuniversity": 3698,
      "Ġconserv": 3699,
      "Ġ40": 3700,
      "Ġautom": 3701,
      "ĠProt": 3702,
      "Ġphilosophy": 3703,
      "Ġincorpor": 3704,
      "wise": 3705,
      "Ġbirds": 3706,
      "Ġbeg": 3707,
      "ocal": 3708,
      "illed": 3709,
      "Ġ1997": 3710,
      "edom": 3711,
      "ĠServ": 3712,
      "ĠDef": 3713,
      "ĠCenter": 3714,
      "Ġreduced": 3715,
      "Ġcitizens": 3716,
      "oids": 3717,
      "ĠTV": 3718,
      "Ġappearance": 3719,
      "tles": 3720,
      "ĠAlf": 3721,
      "Ġ1996": 3722,
      "ini": 3723,
      "ĠAv": 3724,
      "ĠSever": 3725,
      "Ġconne": 3726,
      "...": 3727,
      "mark": 3728,
      "ĠSal": 3729,
      "ĠBre": 3730,
      "Ġspeed": 3731,
      "Ġcommunication": 3732,
      "Ġtheore": 3733,
      "Ġanimal": 3734,
      "ĠKe": 3735,
      "Ġremaining": 3736,
      "force": 3737,
      "Ġbenef": 3738,
      "ĠAM": 3739,
      "ĠAzer": 3740,
      "ĠHill": 3741,
      "Ġ28": 3742,
      "ĠNor": 3743,
      "Ġcommunities": 3744,
      "Ġquickly": 3745,
      "oln": 3746,
      "urder": 3747,
      "ĠFil": 3748,
      "ĠFore": 3749,
      "ĠNavy": 3750,
      "Ġapproximately": 3751,
      "sis": 3752,
      "Ġmess": 3753,
      "ĠMat": 3754,
      "ĠJose": 3755,
      "Ġspeech": 3756,
      "Ġfriend": 3757,
      "pr": 3758,
      "Ġphen": 3759,
      "Ġhours": 3760,
      "ĠLeg": 3761,
      "Ġcontinue": 3762,
      "Ġdefinition": 3763,
      "Ġscreen": 3764,
      "bai": 3765,
      "ĠMem": 3766,
      "Ġsecret": 3767,
      "Ġdevice": 3768,
      "ĠMex": 3769,
      "Ġarrang": 3770,
      "Ġassist": 3771,
      "Ġlaunched": 3772,
      "ĠGovernment": 3773,
      "baijan": 3774,
      "zz": 3775,
      "Ġinternal": 3776,
      "ĠGrand": 3777,
      "Ġcompar": 3778,
      "ĠChap": 3779,
      "izes": 3780,
      "cluding": 3781,
      "rone": 3782,
      "Ġmodels": 3783,
      "Ġsigned": 3784,
      "rival": 3785,
      "Ġcontrovers": 3786,
      "hy": 3787,
      "ĠCivil": 3788,
      "emis": 3789,
      "ĠWales": 3790,
      "Ġformation": 3791,
      "Ġorganization": 3792,
      "11": 3793,
      "arc": 3794,
      "elt": 3795,
      "Ġorbit": 3796,
      "Ġsubs": 3797,
      "stein": 3798,
      "25": 3799,
      "can": 3800,
      "oned": 3801,
      "ĠBible": 3802,
      "Ġalk": 3803,
      "Ġrot": 3804,
      "Ġpurpose": 3805,
      "Ġfif": 3806,
      "Ġlived": 3807,
      "ĠMary": 3808,
      "thodox": 3809,
      "Ġapproach": 3810,
      "mitted": 3811,
      "wor": 3812,
      "Ġanthrop": 3813,
      "Ġrepe": 3814,
      "ela": 3815,
      "ĠAnn": 3816,
      "Ġdriv": 3817,
      "ĠGreece": 3818,
      "Ġnight": 3819,
      "Ġsets": 3820,
      "ĠWhite": 3821,
      "Ġequal": 3822,
      "Ġclaims": 3823,
      "Ġdevices": 3824,
      "Ġpowers": 3825,
      "rier": 3826,
      "ĠLord": 3827,
      "Ġweight": 3828,
      "Ġoccurred": 3829,
      "ĠAzerbaijan": 3830,
      "uge": 3831,
      "Ġstructures": 3832,
      "aught": 3833,
      "Ġbring": 3834,
      "Ġmiddle": 3835,
      "ĠPac": 3836,
      "Ġdead": 3837,
      "ographic": 3838,
      "ĠBarb": 3839,
      "Ġindustrial": 3840,
      "Ġobserved": 3841,
      "kin": 3842,
      "Ġcouncil": 3843,
      "Ġple": 3844,
      "ĠRec": 3845,
      "ĠCorn": 3846,
      "ĠTheir": 3847,
      "ado": 3848,
      "ifically": 3849,
      "Ġrat": 3850,
      "Ġlearn": 3851,
      "orders": 3852,
      "Ġroad": 3853,
      "Ġallowing": 3854,
      "Ġfavor": 3855,
      "ĠAtlantic": 3856,
      "onn": 3857,
      "Ġpil": 3858,
      "Ġplaces": 3859,
      "Ġsimply": 3860,
      "ĠSpain": 3861,
      "incoln": 3862,
      "ĠPrince": 3863,
      "Ġfully": 3864,
      "ĠBor": 3865,
      "Ġglobal": 3866,
      "Ġoffered": 3867,
      "iring": 3868,
      "Ġdirection": 3869,
      "Ġsummer": 3870,
      "Ġreve": 3871,
      "ĠBest": 3872,
      "unk": 3873,
      "ube": 3874,
      "Ġec": 3875,
      "Ġsuc": 3876,
      "obile": 3877,
      "Ġrefers": 3878,
      "Ġdeclared": 3879,
      "ĠVictor": 3880,
      "15": 3881,
      "Ġbal": 3882,
      "ĠBos": 3883,
      "Ġ1994": 3884,
      "Ġfemale": 3885,
      "Ġways": 3886,
      "Ġrecon": 3887,
      "ĠLincoln": 3888,
      "Ġdepend": 3889,
      "Ġclassical": 3890,
      "Ġpresented": 3891,
      "aska": 3892,
      "ilies": 3893,
      "Ġclimate": 3894,
      "Ġextended": 3895,
      "Ġentered": 3896,
      "Ġinterpret": 3897,
      "ya": 3898,
      "ĠSol": 3899,
      "ipment": 3900,
      "Ġshot": 3901,
      "Ġimpl": 3902,
      "Ġrecords": 3903,
      "Ġturned": 3904,
      "enh": 3905,
      "cell": 3906,
      "elled": 3907,
      "earch": 3908,
      "Ġdespite": 3909,
      "Ġancest": 3910,
      "Ġsongs": 3911,
      "Ġspoken": 3912,
      "Ġresistance": 3913,
      "Ġnewsp": 3914,
      "Ġserious": 3915,
      "Ġordered": 3916,
      "ĠLouis": 3917,
      "ooth": 3918,
      "Ġmale": 3919,
      "aded": 3920,
      "Ġfort": 3921,
      "ipl": 3922,
      "Ġarri": 3923,
      "Ġclos": 3924,
      "book": 3925,
      "oured": 3926,
      "amin": 3927,
      "ĠEach": 3928,
      "ructed": 3929,
      "Ġmusical": 3930,
      "Ġreference": 3931,
      "Ġinterview": 3932,
      "Ġpositive": 3933,
      "ĠAdd": 3934,
      "Ġteams": 3935,
      "ĠPortug": 3936,
      "Ġmoment": 3937,
      "inet": 3938,
      "atre": 3939,
      "rod": 3940,
      "Ġclosed": 3941,
      "ĠArk": 3942,
      "Ġ1995": 3943,
      "ĠShah": 3944,
      "ĠGroup": 3945,
      "16": 3946,
      "with": 3947,
      "Ġrein": 3948,
      "igu": 3949,
      "ĠElect": 3950,
      "Ġdeal": 3951,
      "Ġexhib": 3952,
      "sec": 3953,
      "ĠAch": 3954,
      "Ġhundred": 3955,
      "aging": 3956,
      "Ġprison": 3957,
      "Ġvictory": 3958,
      "CA": 3959,
      "Ġcru": 3960,
      "quar": 3961,
      "ĠChic": 3962,
      "Ġnegative": 3963,
      "Ġapplications": 3964,
      "oes": 3965,
      "ĠTra": 3966,
      "umin": 3967,
      "ĠDiv": 3968,
      "Ġ183": 3969,
      "Ġended": 3970,
      "Ġnuclear": 3971,
      "las": 3972,
      "iments": 3973,
      "ulate": 3974,
      "Ġshare": 3975,
      "ĠAtari": 3976,
      "Ġoccurs": 3977,
      "Ġcondition": 3978,
      "ĠBelg": 3979,
      "Ġbrief": 3980,
      "ĠSun": 3981,
      "uls": 3982,
      "estic": 3983,
      "Ġeffic": 3984,
      "Ġopposed": 3985,
      "ĠFranc": 3986,
      "ĠBrown": 3987,
      "Ġdistribution": 3988,
      "Ġvirt": 3989,
      "Ġbinary": 3990,
      "ĠAh": 3991,
      "imens": 3992,
      "ĠMill": 3993,
      "ĠJes": 3994,
      "Ġserve": 3995,
      "Ġsport": 3996,
      "Ġpal": 3997,
      "ĠRob": 3998,
      "ĠLater": 3999
    },
    "merges": [
      [
        "Ġ",
        "t"
      ],
      [
        "Ġ",
        "a"
      ],
      [
        "h",
        "e"
      ],
      [
        "i",
        "n"
      ],
      [
        "Ġt",
        "he"
      ],
      [
        "e",
        "r"
      ],
      [
        "o",
        "n"
      ],
      [
        "r",
        "e"
      ],
      [
        "Ġ",
        "o"
      ],
      [
        "a",
        "t"
      ],
      [
        "Ġ",
        "s"
      ],
      [
        "e",
        "n"
      ],
      [
        "e",
        "d"
      ],
      [
        "a",
        "n"
      ],
      [
        "i",
        "s"
      ],
      [
        "Ġ",
        "c"
      ],
      [
        "Ġ",
        "w"
      ],
      [
        "e",
        "s"
      ],
      [
        "i",
        "t"
      ],
      [
        "o",
        "r"
      ],
      [
        "Ġo",
        "f"
      ],
      [
        "a",
        "l"
      ],
      [
        "Ġa",
        "n"
      ],
      [
        "Ġ",
        "b"
      ],
      [
        "a",
        "r"
      ],
      [
        "Ġ",
        "in"
      ],
      [
        "Ġ",
        "f"
      ],
      [
        "Ġ",
        "p"
      ],
      [
        "i",
        "c"
      ],
      [
        "Ġan",
        "d"
      ],
      [
        "in",
        "g"
      ],
      [
        "i",
        "on"
      ],
      [
        "a",
        "s"
      ],
      [
        "r",
        "o"
      ],
      [
        "Ġ",
        "m"
      ],
      [
        "Ġt",
        "o"
      ],
      [
        "Ġ",
        "d"
      ],
      [
        "l",
        "e"
      ],
      [
        "Ġ",
        "A"
      ],
      [
        "Ġ",
        "h"
      ],
      [
        "en",
        "t"
      ],
      [
        "o",
        "u"
      ],
      [
        "Ġ",
        "T"
      ],
      [
        "o",
        "m"
      ],
      [
        "Ġ",
        "re"
      ],
      [
        "s",
        "t"
      ],
      [
        "l",
        "y"
      ],
      [
        "c",
        "t"
      ],
      [
        "Ġ",
        "e"
      ],
      [
        "Ġt",
        "h"
      ],
      [
        "Ġ",
        "l"
      ],
      [
        "i",
        "l"
      ],
      [
        "Ġ",
        "C"
      ],
      [
        "Ġ",
        "n"
      ],
      [
        "Ġ",
        "S"
      ],
      [
        "Ġ",
        "B"
      ],
      [
        "o",
        "l"
      ],
      [
        "v",
        "e"
      ],
      [
        "u",
        "s"
      ],
      [
        "Ġb",
        "e"
      ],
      [
        "a",
        "m"
      ],
      [
        "at",
        "ion"
      ],
      [
        "u",
        "r"
      ],
      [
        "ĠT",
        "he"
      ],
      [
        "c",
        "e"
      ],
      [
        "i",
        "d"
      ],
      [
        "Ġ",
        "is"
      ],
      [
        "c",
        "h"
      ],
      [
        "a",
        "d"
      ],
      [
        "i",
        "m"
      ],
      [
        "Ġ",
        "I"
      ],
      [
        "Ġa",
        "s"
      ],
      [
        "u",
        "n"
      ],
      [
        "Ġ",
        "1"
      ],
      [
        "Ġf",
        "or"
      ],
      [
        "o",
        "t"
      ],
      [
        "u",
        "t"
      ],
      [
        "v",
        "er"
      ],
      [
        "i",
        "g"
      ],
      [
        "e",
        "t"
      ],
      [
        "Ġ",
        "g"
      ],
      [
        "i",
        "r"
      ],
      [
        "e",
        "l"
      ],
      [
        "Ġ",
        "on"
      ],
      [
        "Ġ",
        "M"
      ],
      [
        "u",
        "l"
      ],
      [
        "t",
        "er"
      ],
      [
        "it",
        "h"
      ],
      [
        "Ġw",
        "as"
      ],
      [
        "o",
        "w"
      ],
      [
        "r",
        "a"
      ],
      [
        "Ġ",
        "("
      ],
      [
        "Ġs",
        "t"
      ],
      [
        "Ġc",
        "on"
      ],
      [
        "he",
        "r"
      ],
      [
        "Ġw",
        "ith"
      ],
      [
        "Ġ",
        "P"
      ],
      [
        "is",
        "t"
      ],
      [
        "Ġa",
        "l"
      ],
      [
        "Ġb",
        "y"
      ],
      [
        "Ġth",
        "at"
      ],
      [
        "a",
        "y"
      ],
      [
        "Ġ",
        "H"
      ],
      [
        "e",
        "m"
      ],
      [
        "o",
        "s"
      ],
      [
        "Ġw",
        "h"
      ],
      [
        "r",
        "i"
      ],
      [
        "t",
        "h"
      ],
      [
        "u",
        "m"
      ],
      [
        "an",
        "d"
      ],
      [
        "Ġp",
        "ro"
      ],
      [
        "o",
        "d"
      ],
      [
        "er",
        "s"
      ],
      [
        "'",
        "s"
      ],
      [
        "Ġo",
        "r"
      ],
      [
        "o",
        "p"
      ],
      [
        "Ġ",
        "R"
      ],
      [
        "Ġ",
        "E"
      ],
      [
        "Ġc",
        "om"
      ],
      [
        "Ġ",
        "D"
      ],
      [
        "Ġa",
        "re"
      ],
      [
        "Ġd",
        "e"
      ],
      [
        "ĠI",
        "n"
      ],
      [
        "a",
        "g"
      ],
      [
        "Ġ",
        "F"
      ],
      [
        "es",
        "t"
      ],
      [
        "i",
        "f"
      ],
      [
        "Ġ",
        "it"
      ],
      [
        "Ġ",
        "G"
      ],
      [
        "ro",
        "m"
      ],
      [
        "a",
        "c"
      ],
      [
        "Ġ",
        "W"
      ],
      [
        "Ġ",
        "L"
      ],
      [
        "Ġs",
        "u"
      ],
      [
        "at",
        "e"
      ],
      [
        "Ġ",
        "\""
      ],
      [
        "a",
        "in"
      ],
      [
        "i",
        "es"
      ],
      [
        "Ġ1",
        "9"
      ],
      [
        "re",
        "s"
      ],
      [
        "a",
        "b"
      ],
      [
        "Ġa",
        "t"
      ],
      [
        "Ġ",
        "2"
      ],
      [
        "it",
        "y"
      ],
      [
        "p",
        "e"
      ],
      [
        "Ġe",
        "x"
      ],
      [
        "Ġ",
        "N"
      ],
      [
        "Ġf",
        "rom"
      ],
      [
        "ou",
        "n"
      ],
      [
        "Ġ",
        "v"
      ],
      [
        "Ġ",
        "he"
      ],
      [
        "s",
        "e"
      ],
      [
        "u",
        "d"
      ],
      [
        "i",
        "ve"
      ],
      [
        "o",
        "c"
      ],
      [
        "q",
        "u"
      ],
      [
        "m",
        "ent"
      ],
      [
        "an",
        "t"
      ],
      [
        "i",
        "v"
      ],
      [
        "Ġs",
        "e"
      ],
      [
        "ic",
        "h"
      ],
      [
        "or",
        "t"
      ],
      [
        "l",
        "d"
      ],
      [
        "es",
        "s"
      ],
      [
        "ic",
        "al"
      ],
      [
        "i",
        "an"
      ],
      [
        "i",
        "al"
      ],
      [
        "o",
        "re"
      ],
      [
        "Ġ",
        "O"
      ],
      [
        "ar",
        "t"
      ],
      [
        "Ġ",
        "J"
      ],
      [
        "Ġ",
        "us"
      ],
      [
        "Ġ",
        "r"
      ],
      [
        "Ġ",
        "un"
      ],
      [
        "p",
        "p"
      ],
      [
        "Ġh",
        "is"
      ],
      [
        "al",
        "l"
      ],
      [
        "p",
        "t"
      ],
      [
        "i",
        "a"
      ],
      [
        "ig",
        "h"
      ],
      [
        "at",
        "ed"
      ],
      [
        "il",
        "l"
      ],
      [
        "0",
        "0"
      ],
      [
        "ar",
        "d"
      ],
      [
        "Ġwh",
        "ich"
      ],
      [
        "e",
        "w"
      ],
      [
        "er",
        "e"
      ],
      [
        "g",
        "h"
      ],
      [
        "b",
        "er"
      ],
      [
        "ct",
        "ion"
      ],
      [
        "Ġc",
        "h"
      ],
      [
        "a",
        "k"
      ],
      [
        "t",
        "her"
      ],
      [
        "Ġ",
        "U"
      ],
      [
        "g",
        "e"
      ],
      [
        "a",
        "ve"
      ],
      [
        "o",
        "st"
      ],
      [
        "en",
        "d"
      ],
      [
        "o",
        "g"
      ],
      [
        "Ġw",
        "ere"
      ],
      [
        "u",
        "re"
      ],
      [
        "Ġn",
        "ot"
      ],
      [
        "ar",
        "y"
      ],
      [
        "c",
        "l"
      ],
      [
        "i",
        "p"
      ],
      [
        "in",
        "e"
      ],
      [
        "Ġp",
        "l"
      ],
      [
        "as",
        "t"
      ],
      [
        "is",
        "h"
      ],
      [
        "Ġ",
        "le"
      ],
      [
        "Ġcom",
        "p"
      ],
      [
        "ou",
        "s"
      ],
      [
        "p",
        "er"
      ],
      [
        "s",
        "o"
      ],
      [
        "on",
        "g"
      ],
      [
        "Ġa",
        "r"
      ],
      [
        "d",
        "u"
      ],
      [
        "ou",
        "r"
      ],
      [
        "el",
        "l"
      ],
      [
        "am",
        "e"
      ],
      [
        "Ġ",
        "k"
      ],
      [
        "r",
        "it"
      ],
      [
        "Ġh",
        "ave"
      ],
      [
        "om",
        "e"
      ],
      [
        "a",
        "v"
      ],
      [
        "Ġ",
        "K"
      ],
      [
        "c",
        "c"
      ],
      [
        "an",
        "s"
      ],
      [
        "e",
        "ct"
      ],
      [
        "it",
        "ion"
      ],
      [
        "igh",
        "t"
      ],
      [
        "or",
        "d"
      ],
      [
        "Ġs",
        "h"
      ],
      [
        "ĠC",
        "h"
      ],
      [
        "i",
        "re"
      ],
      [
        "i",
        "z"
      ],
      [
        "Ġcon",
        "t"
      ],
      [
        "ul",
        "t"
      ],
      [
        "u",
        "p"
      ],
      [
        "Ġin",
        "t"
      ],
      [
        "id",
        "e"
      ],
      [
        "u",
        "b"
      ],
      [
        "e",
        "ar"
      ],
      [
        "f",
        "f"
      ],
      [
        "r",
        "y"
      ],
      [
        "a",
        "p"
      ],
      [
        "Ġh",
        "as"
      ],
      [
        "Ġal",
        "so"
      ],
      [
        "m",
        "er"
      ],
      [
        "Ġa",
        "d"
      ],
      [
        "en",
        "ce"
      ],
      [
        "ation",
        "s"
      ],
      [
        "ĠS",
        "t"
      ],
      [
        "d",
        "er"
      ],
      [
        "i",
        "b"
      ],
      [
        "u",
        "st"
      ],
      [
        "al",
        "ly"
      ],
      [
        "Ġh",
        "ad"
      ],
      [
        "Ġw",
        "he"
      ],
      [
        "Ġthe",
        "ir"
      ],
      [
        "ac",
        "k"
      ],
      [
        "ig",
        "n"
      ],
      [
        "Ġit",
        "s"
      ],
      [
        "as",
        "s"
      ],
      [
        "p",
        "l"
      ],
      [
        ")",
        ","
      ],
      [
        "Ġa",
        "b"
      ],
      [
        "Ġ2",
        "0"
      ],
      [
        "Ġp",
        "art"
      ],
      [
        "u",
        "e"
      ],
      [
        "ag",
        "e"
      ],
      [
        "Ġo",
        "ther"
      ],
      [
        "Ġb",
        "ut"
      ],
      [
        "Ġre",
        "s"
      ],
      [
        "an",
        "g"
      ],
      [
        "ĠA",
        "n"
      ],
      [
        "ou",
        "ld"
      ],
      [
        "Ġt",
        "r"
      ],
      [
        "l",
        "ow"
      ],
      [
        "ĠT",
        "h"
      ],
      [
        "a",
        "ct"
      ],
      [
        "Ġc",
        "l"
      ],
      [
        "at",
        "er"
      ],
      [
        "o",
        "k"
      ],
      [
        "cl",
        "ud"
      ],
      [
        "ĠA",
        "l"
      ],
      [
        "Ġc",
        "an"
      ],
      [
        "f",
        "er"
      ],
      [
        "a",
        "re"
      ],
      [
        "Ġ",
        "y"
      ],
      [
        "Ġw",
        "or"
      ],
      [
        "Ġ",
        "im"
      ],
      [
        "oun",
        "t"
      ],
      [
        "p",
        "h"
      ],
      [
        "ve",
        "l"
      ],
      [
        "Ġd",
        "is"
      ],
      [
        "Ġ",
        "en"
      ],
      [
        "i",
        "e"
      ],
      [
        "r",
        "u"
      ],
      [
        "or",
        "y"
      ],
      [
        "ir",
        "st"
      ],
      [
        "re",
        "e"
      ],
      [
        "at",
        "es"
      ],
      [
        "an",
        "y"
      ],
      [
        "Ġbe",
        "en"
      ],
      [
        "er",
        "m"
      ],
      [
        "ĠU",
        "n"
      ],
      [
        "ter",
        "n"
      ],
      [
        "Ġth",
        "is"
      ],
      [
        "o",
        "ver"
      ],
      [
        "ion",
        "s"
      ],
      [
        "an",
        "ce"
      ],
      [
        "Ġin",
        "clud"
      ],
      [
        "or",
        "m"
      ],
      [
        "Ġon",
        "e"
      ],
      [
        "r",
        "ic"
      ],
      [
        "Ġbe",
        "c"
      ],
      [
        "Ġcom",
        "m"
      ],
      [
        "ou",
        "t"
      ],
      [
        "a",
        "ce"
      ],
      [
        "c",
        "on"
      ],
      [
        "Ġf",
        "irst"
      ],
      [
        "Ġ",
        "V"
      ],
      [
        "ow",
        "n"
      ],
      [
        "im",
        "e"
      ],
      [
        "ab",
        "le"
      ],
      [
        "a",
        "ch"
      ],
      [
        "w",
        "o"
      ],
      [
        "he",
        "d"
      ],
      [
        "res",
        "s"
      ],
      [
        "ver",
        "s"
      ],
      [
        "i",
        "le"
      ],
      [
        "f",
        "ter"
      ],
      [
        "Ġsu",
        "ch"
      ],
      [
        "u",
        "gh"
      ],
      [
        "k",
        "e"
      ],
      [
        "Ġus",
        "ed"
      ],
      [
        ")",
        "."
      ],
      [
        "t",
        "e"
      ],
      [
        "p",
        "ort"
      ],
      [
        "ĠI",
        "t"
      ],
      [
        "Ġt",
        "e"
      ],
      [
        "oun",
        "d"
      ],
      [
        "Ġ",
        "ro"
      ],
      [
        "l",
        "and"
      ],
      [
        "un",
        "d"
      ],
      [
        "c",
        "ed"
      ],
      [
        "c",
        "es"
      ],
      [
        "en",
        "s"
      ],
      [
        "Ġp",
        "re"
      ],
      [
        "ĠA",
        "r"
      ],
      [
        "Ġwh",
        "o"
      ],
      [
        "e",
        "p"
      ],
      [
        "Ġs",
        "y"
      ],
      [
        "Ġp",
        "er"
      ],
      [
        "ic",
        "e"
      ],
      [
        "Ġs",
        "pe"
      ],
      [
        "ou",
        "gh"
      ],
      [
        "Ġcon",
        "s"
      ],
      [
        "er",
        "v"
      ],
      [
        "l",
        "ic"
      ],
      [
        "Ġal",
        "l"
      ],
      [
        "re",
        "n"
      ],
      [
        "ur",
        "ing"
      ],
      [
        "Ġn",
        "e"
      ],
      [
        "os",
        "e"
      ],
      [
        "Ġd",
        "es"
      ],
      [
        "Ġfor",
        "m"
      ],
      [
        "Ġa",
        "g"
      ],
      [
        "or",
        "s"
      ],
      [
        "ation",
        "al"
      ],
      [
        "ar",
        "i"
      ],
      [
        "Ġ2",
        "00"
      ],
      [
        "Ġc",
        "ent"
      ],
      [
        "Ġs",
        "p"
      ],
      [
        "r",
        "on"
      ],
      [
        "l",
        "es"
      ],
      [
        "Ġthe",
        "y"
      ],
      [
        "o",
        "v"
      ],
      [
        "Ġm",
        "ore"
      ],
      [
        "as",
        "e"
      ],
      [
        "w",
        "e"
      ],
      [
        "Ġe",
        "v"
      ],
      [
        "ĠH",
        "e"
      ],
      [
        "Ġs",
        "c"
      ],
      [
        "is",
        "m"
      ],
      [
        "ent",
        "s"
      ],
      [
        "Ġint",
        "o"
      ],
      [
        "it",
        "e"
      ],
      [
        "Ġt",
        "wo"
      ],
      [
        "Ġm",
        "ost"
      ],
      [
        "k",
        "s"
      ],
      [
        "ad",
        "e"
      ],
      [
        "it",
        "ed"
      ],
      [
        "t",
        "s"
      ],
      [
        "Ġ",
        "j"
      ],
      [
        "i",
        "ed"
      ],
      [
        "Ġre",
        "c"
      ],
      [
        "ul",
        "ar"
      ],
      [
        "Ġ20",
        "1"
      ],
      [
        "ol",
        "og"
      ],
      [
        "a",
        "w"
      ],
      [
        "at",
        "ive"
      ],
      [
        "Ġe",
        "le"
      ],
      [
        "Ġre",
        "l"
      ],
      [
        "am",
        "p"
      ],
      [
        "a",
        "us"
      ],
      [
        "Ġo",
        "ver"
      ],
      [
        "re",
        "at"
      ],
      [
        "Ġm",
        "e"
      ],
      [
        "Ġy",
        "ear"
      ],
      [
        "Ġ1",
        "8"
      ],
      [
        "Ġre",
        "g"
      ],
      [
        "ri",
        "b"
      ],
      [
        "Ġc",
        "ol"
      ],
      [
        "Ġat",
        "t"
      ],
      [
        "ĠA",
        "s"
      ],
      [
        "mer",
        "ic"
      ],
      [
        "on",
        "e"
      ],
      [
        "u",
        "al"
      ],
      [
        "Ġs",
        "ome"
      ],
      [
        "o",
        "in"
      ],
      [
        "f",
        "t"
      ],
      [
        "at",
        "h"
      ],
      [
        "ro",
        "ugh"
      ],
      [
        "o",
        "od"
      ],
      [
        "Ġbe",
        "t"
      ],
      [
        "n",
        "e"
      ],
      [
        "Ġo",
        "ut"
      ],
      [
        "Ġg",
        "ro"
      ],
      [
        "w",
        "n"
      ],
      [
        "Ġn",
        "um"
      ],
      [
        "Ġth",
        "an"
      ],
      [
        "as",
        "ed"
      ],
      [
        "t",
        "ed"
      ],
      [
        "ic",
        "s"
      ],
      [
        "Ġa",
        "fter"
      ],
      [
        "ot",
        "h"
      ],
      [
        "Ġa",
        "pp"
      ],
      [
        "Ġa",
        "m"
      ],
      [
        "Ġpro",
        "du"
      ],
      [
        "ing",
        "s"
      ],
      [
        "Ġg",
        "en"
      ],
      [
        "ĠTh",
        "is"
      ],
      [
        "f",
        "orm"
      ],
      [
        "ĠA",
        "meric"
      ],
      [
        "Ġsu",
        "b"
      ],
      [
        "t",
        "en"
      ],
      [
        "o",
        "ok"
      ],
      [
        "re",
        "d"
      ],
      [
        "Ġk",
        "n"
      ],
      [
        "is",
        "s"
      ],
      [
        "if",
        "ic"
      ],
      [
        "o",
        "b"
      ],
      [
        "on",
        "s"
      ],
      [
        "Ġw",
        "ould"
      ],
      [
        "Ġl",
        "ar"
      ],
      [
        "ur",
        "y"
      ],
      [
        "ol",
        "d"
      ],
      [
        "ar",
        "k"
      ],
      [
        "Ġm",
        "ay"
      ],
      [
        "Ġt",
        "ime"
      ],
      [
        "st",
        "em"
      ],
      [
        "Ġun",
        "der"
      ],
      [
        "we",
        "en"
      ],
      [
        "ĠE",
        "n"
      ],
      [
        "Ġon",
        "ly"
      ],
      [
        "Ġpl",
        "ay"
      ],
      [
        "g",
        "an"
      ],
      [
        "y",
        "s"
      ],
      [
        "Ġa",
        "c"
      ],
      [
        "Ġwhe",
        "n"
      ],
      [
        "Ġin",
        "ter"
      ],
      [
        "Ġs",
        "o"
      ],
      [
        "Ġe",
        "ar"
      ],
      [
        "Ġa",
        "cc"
      ],
      [
        "in",
        "d"
      ],
      [
        "al",
        "s"
      ],
      [
        "a",
        "il"
      ],
      [
        "Ġm",
        "od"
      ],
      [
        "t",
        "he"
      ],
      [
        "o",
        "ve"
      ],
      [
        "Ġbet",
        "ween"
      ],
      [
        "Ġas",
        "s"
      ],
      [
        "e",
        "ver"
      ],
      [
        "Ġn",
        "ew"
      ],
      [
        "Ġp",
        "h"
      ],
      [
        "Ġ",
        "ra"
      ],
      [
        "r",
        "an"
      ],
      [
        "Ġ",
        "up"
      ],
      [
        "Ġthe",
        "re"
      ],
      [
        "l",
        "i"
      ],
      [
        "Ġspe",
        "c"
      ],
      [
        "Ġm",
        "any"
      ],
      [
        "Ġin",
        "d"
      ],
      [
        "r",
        "al"
      ],
      [
        "Ġof",
        "f"
      ],
      [
        "il",
        "d"
      ],
      [
        "\"",
        "."
      ],
      [
        "over",
        "n"
      ],
      [
        "Ġthe",
        "m"
      ],
      [
        "Ġus",
        "e"
      ],
      [
        "Ġh",
        "im"
      ],
      [
        "c",
        "re"
      ],
      [
        "it",
        "ies"
      ],
      [
        "Ġd",
        "if"
      ],
      [
        "ur",
        "n"
      ],
      [
        "Ġp",
        "e"
      ],
      [
        "Ġ19",
        "9"
      ],
      [
        "Ġ",
        "3"
      ],
      [
        "vel",
        "op"
      ],
      [
        "r",
        "am"
      ],
      [
        "in",
        "ce"
      ],
      [
        "Ġ",
        "Y"
      ],
      [
        "Ġn",
        "o"
      ],
      [
        "Ġsy",
        "stem"
      ],
      [
        "Ġc",
        "ount"
      ],
      [
        "Ġde",
        "f"
      ],
      [
        "ĠC",
        "om"
      ],
      [
        "ar",
        "s"
      ],
      [
        "Ġp",
        "r"
      ],
      [
        "Ġtr",
        "ans"
      ],
      [
        "Ġ",
        "qu"
      ],
      [
        "Ġth",
        "rough"
      ],
      [
        "Ġa",
        "ct"
      ],
      [
        "j",
        "ect"
      ],
      [
        "Ġ",
        "her"
      ],
      [
        "Ġb",
        "l"
      ],
      [
        "ut",
        "ion"
      ],
      [
        "in",
        "es"
      ],
      [
        "ĠS",
        "e"
      ],
      [
        "er",
        "n"
      ],
      [
        "Ġc",
        "all"
      ],
      [
        "ol",
        "low"
      ],
      [
        "Ġp",
        "os"
      ],
      [
        "w",
        "ard"
      ],
      [
        "u",
        "c"
      ],
      [
        "ĠB",
        "rit"
      ],
      [
        "Ġp",
        "res"
      ],
      [
        "Ġwhe",
        "re"
      ],
      [
        "Ġw",
        "e"
      ],
      [
        "on",
        "d"
      ],
      [
        "or",
        "n"
      ],
      [
        "at",
        "ing"
      ],
      [
        "Ġp",
        "ub"
      ],
      [
        "Ġre",
        "m"
      ],
      [
        "is",
        "hed"
      ],
      [
        "Ġd",
        "uring"
      ],
      [
        "ak",
        "e"
      ],
      [
        "ist",
        "s"
      ],
      [
        "ic",
        "t"
      ],
      [
        "o",
        "y"
      ],
      [
        "he",
        "s"
      ],
      [
        "Ġwor",
        "k"
      ],
      [
        "ar",
        "ch"
      ],
      [
        "Ġe",
        "m"
      ],
      [
        "Ġo",
        "b"
      ],
      [
        "Ġsu",
        "pp"
      ],
      [
        "Ġpro",
        "v"
      ],
      [
        "id",
        "ent"
      ],
      [
        "Ġde",
        "velop"
      ],
      [
        "ĠR",
        "e"
      ],
      [
        "Ġd",
        "o"
      ],
      [
        "Ġin",
        "st"
      ],
      [
        "t",
        "le"
      ],
      [
        "Ġf",
        "il"
      ],
      [
        "c",
        "ess"
      ],
      [
        "u",
        "g"
      ],
      [
        "Ġkn",
        "own"
      ],
      [
        "i",
        "vers"
      ],
      [
        "Ġs",
        "et"
      ],
      [
        "i",
        "ous"
      ],
      [
        "Ġp",
        "ol"
      ],
      [
        "u",
        "ro"
      ],
      [
        "Ġin",
        "v"
      ],
      [
        "Ġm",
        "et"
      ],
      [
        "ay",
        "s"
      ],
      [
        "aus",
        "e"
      ],
      [
        "\"",
        ","
      ],
      [
        "u",
        "res"
      ],
      [
        "Ġm",
        "an"
      ],
      [
        "ow",
        "er"
      ],
      [
        "Ġl",
        "i"
      ],
      [
        "ver",
        "y"
      ],
      [
        "l",
        "ed"
      ],
      [
        "Ġp",
        "op"
      ],
      [
        "ical",
        "ly"
      ],
      [
        "Ġin",
        "f"
      ],
      [
        "ment",
        "s"
      ],
      [
        "Ġm",
        "em"
      ],
      [
        "h",
        "ip"
      ],
      [
        "Ġgen",
        "er"
      ],
      [
        "i",
        "ent"
      ],
      [
        "ow",
        "ever"
      ],
      [
        "o",
        "h"
      ],
      [
        "Ġv",
        "ari"
      ],
      [
        "Ġf",
        "ound"
      ],
      [
        "ce",
        "pt"
      ],
      [
        "f",
        "ore"
      ],
      [
        "Ġthe",
        "se"
      ],
      [
        "Ġt",
        "ra"
      ],
      [
        "Ġa",
        "p"
      ],
      [
        "i",
        "x"
      ],
      [
        "u",
        "ally"
      ],
      [
        "ĠC",
        "on"
      ],
      [
        "t",
        "on"
      ],
      [
        "Ġab",
        "out"
      ],
      [
        "ou",
        "th"
      ],
      [
        "Ġg",
        "overn"
      ],
      [
        "ĠD",
        "e"
      ],
      [
        "ĠEn",
        "g"
      ],
      [
        "a",
        "j"
      ],
      [
        "iz",
        "ed"
      ],
      [
        "ct",
        "ed"
      ],
      [
        "a",
        "h"
      ],
      [
        "t",
        "ain"
      ],
      [
        "Ġyear",
        "s"
      ],
      [
        "Ġch",
        "ar"
      ],
      [
        "ib",
        "le"
      ],
      [
        "ĠN",
        "ew"
      ],
      [
        "Ġf",
        "ollow"
      ],
      [
        "Ġf",
        "l"
      ],
      [
        "in",
        "s"
      ],
      [
        "Ġd",
        "ist"
      ],
      [
        "Ġc",
        "o"
      ],
      [
        "i",
        "um"
      ],
      [
        "Ġex",
        "p"
      ],
      [
        "Ġl",
        "oc"
      ],
      [
        "he",
        "n"
      ],
      [
        "op",
        "le"
      ],
      [
        "Ġcent",
        "ury"
      ],
      [
        "v",
        "ed"
      ],
      [
        "Ġnum",
        "ber"
      ],
      [
        "ang",
        "u"
      ],
      [
        "Ġad",
        "d"
      ],
      [
        "oc",
        "i"
      ],
      [
        "is",
        "e"
      ],
      [
        "Ġe",
        "ff"
      ],
      [
        "er",
        "ed"
      ],
      [
        "ĠAmeric",
        "an"
      ],
      [
        "ĠO",
        "n"
      ],
      [
        "y",
        "p"
      ],
      [
        "Ġinclud",
        "ing"
      ],
      [
        "Ġm",
        "ade"
      ],
      [
        "Ġre",
        "p"
      ],
      [
        "Ġdif",
        "fer"
      ],
      [
        "Ġf",
        "e"
      ],
      [
        "ction",
        "s"
      ],
      [
        "in",
        "al"
      ],
      [
        "l",
        "ish"
      ],
      [
        "Ġfil",
        "m"
      ],
      [
        "Ġs",
        "ur"
      ],
      [
        "1",
        "9"
      ],
      [
        "ur",
        "al"
      ],
      [
        "Ġw",
        "ell"
      ],
      [
        "or",
        "th"
      ],
      [
        "Ġbe",
        "ing"
      ],
      [
        "ĠA",
        "t"
      ],
      [
        "Ġim",
        "p"
      ],
      [
        "Ġb",
        "oth"
      ],
      [
        "Ġc",
        "re"
      ],
      [
        "ĠF",
        "or"
      ],
      [
        "i",
        "o"
      ],
      [
        "le",
        "x"
      ],
      [
        "ĠUn",
        "ited"
      ],
      [
        "Ġs",
        "erv"
      ],
      [
        "Ġcall",
        "ed"
      ],
      [
        "Ġw",
        "rit"
      ],
      [
        "Ġm",
        "ain"
      ],
      [
        "Ġc",
        "ar"
      ],
      [
        "Ġb",
        "u"
      ],
      [
        "Ġex",
        "t"
      ],
      [
        "m",
        "an"
      ],
      [
        "if",
        "e"
      ],
      [
        "Ġag",
        "ain"
      ],
      [
        "c",
        "y"
      ],
      [
        "Ġs",
        "ign"
      ],
      [
        "at",
        "ure"
      ],
      [
        "ro",
        "und"
      ],
      [
        "ant",
        "s"
      ],
      [
        "i",
        "el"
      ],
      [
        "Ġan",
        "y"
      ],
      [
        "Ġthe",
        "n"
      ],
      [
        "u",
        "ch"
      ],
      [
        "it",
        "s"
      ],
      [
        ".",
        "\""
      ],
      [
        "Ġ",
        "ent"
      ],
      [
        "ĠA",
        "p"
      ],
      [
        "Ġwh",
        "ile"
      ],
      [
        "b",
        "ers"
      ],
      [
        "c",
        "ial"
      ],
      [
        "Ġst",
        "ud"
      ],
      [
        "Ġh",
        "ist"
      ],
      [
        "im",
        "es"
      ],
      [
        "Ġ",
        "end"
      ],
      [
        "ĠA",
        "m"
      ],
      [
        "Ġl",
        "ater"
      ],
      [
        "il",
        "ity"
      ],
      [
        "Ġ19",
        "8"
      ],
      [
        "con",
        "d"
      ],
      [
        "Ġs",
        "im"
      ],
      [
        "ĠI",
        "s"
      ],
      [
        "Ġbec",
        "ame"
      ],
      [
        "ter",
        "s"
      ],
      [
        "Ġde",
        "c"
      ],
      [
        "Ġ",
        "4"
      ],
      [
        "Ġar",
        "t"
      ],
      [
        "Ġth",
        "ree"
      ],
      [
        "Ġs",
        "m"
      ],
      [
        "at",
        "her"
      ],
      [
        "oc",
        "k"
      ],
      [
        "ĠBrit",
        "ish"
      ],
      [
        "he",
        "m"
      ],
      [
        "Ġ19",
        "7"
      ],
      [
        "Ġof",
        "ten"
      ],
      [
        "Ġl",
        "angu"
      ],
      [
        "ĠE",
        "uro"
      ],
      [
        "l",
        "l"
      ],
      [
        "ic",
        "k"
      ],
      [
        "Ġt",
        "erm"
      ],
      [
        "Ġde",
        "p"
      ],
      [
        "Ġear",
        "ly"
      ],
      [
        "ian",
        "s"
      ],
      [
        "ro",
        "s"
      ],
      [
        "ra",
        "ct"
      ],
      [
        "ot",
        "her"
      ],
      [
        "el",
        "f"
      ],
      [
        "Ġgro",
        "up"
      ],
      [
        "Ġcon",
        "st"
      ],
      [
        "Ġm",
        "on"
      ],
      [
        "Ġs",
        "er"
      ],
      [
        "am",
        "es"
      ],
      [
        "Ġlar",
        "ge"
      ],
      [
        "Ġa",
        "ut"
      ],
      [
        "Ġh",
        "igh"
      ],
      [
        "ĠL",
        "e"
      ],
      [
        "Ġa",
        "ir"
      ],
      [
        "or",
        "k"
      ],
      [
        "i",
        "ly"
      ],
      [
        "g",
        "est"
      ],
      [
        "r",
        "ist"
      ],
      [
        "is",
        "ion"
      ],
      [
        "c",
        "k"
      ],
      [
        "ĠB",
        "l"
      ],
      [
        "Ġpe",
        "ople"
      ],
      [
        "Ġse",
        "ver"
      ],
      [
        "ag",
        "es"
      ],
      [
        "Ġ",
        "."
      ],
      [
        "Ġdes",
        "c"
      ],
      [
        "olog",
        "y"
      ],
      [
        "Ġcont",
        "in"
      ],
      [
        "Ġpart",
        "ic"
      ],
      [
        "t",
        "ing"
      ],
      [
        "ro",
        "p"
      ],
      [
        "ĠA",
        "f"
      ],
      [
        "f",
        "ul"
      ],
      [
        "ĠEuro",
        "pe"
      ],
      [
        "ĠB",
        "e"
      ],
      [
        "Ġ",
        "est"
      ],
      [
        "Ġst",
        "ate"
      ],
      [
        "Ġcomm",
        "on"
      ],
      [
        "l",
        "ished"
      ],
      [
        "aj",
        "or"
      ],
      [
        "Ġm",
        "us"
      ],
      [
        "Ġd",
        "ire"
      ],
      [
        "Ġor",
        "ig"
      ],
      [
        "u",
        "es"
      ],
      [
        "t",
        "y"
      ],
      [
        "Ġc",
        "ity"
      ],
      [
        "an",
        "n"
      ],
      [
        "Ġl",
        "ong"
      ],
      [
        "ĠC",
        "ol"
      ],
      [
        "Ġap",
        "pe"
      ],
      [
        "Ġ19",
        "6"
      ],
      [
        "o",
        "ol"
      ],
      [
        "a",
        "pt"
      ],
      [
        "Ġ",
        "5"
      ],
      [
        "Ġwor",
        "ld"
      ],
      [
        "v",
        "ent"
      ],
      [
        "ĠIn",
        "d"
      ],
      [
        "Ġcons",
        "id"
      ],
      [
        "ivers",
        "ity"
      ],
      [
        "Ġres",
        "ult"
      ],
      [
        "Ġre",
        "t"
      ],
      [
        "Ġo",
        "per"
      ],
      [
        "a",
        "ir"
      ],
      [
        "e",
        "x"
      ],
      [
        "Ġp",
        "ers"
      ],
      [
        "iel",
        "d"
      ],
      [
        "i",
        "ew"
      ],
      [
        "a",
        "x"
      ],
      [
        "ĠS",
        "h"
      ],
      [
        "Ġan",
        "t"
      ],
      [
        "Ġc",
        "ould"
      ],
      [
        "g",
        "er"
      ],
      [
        "Ġle",
        "ad"
      ],
      [
        "ĠA",
        "d"
      ],
      [
        "in",
        "ed"
      ],
      [
        "t",
        "il"
      ],
      [
        "a",
        "z"
      ],
      [
        "us",
        "s"
      ],
      [
        "Ġs",
        "ame"
      ],
      [
        "amp",
        "le"
      ],
      [
        "Ġo",
        "wn"
      ],
      [
        "os",
        "ed"
      ],
      [
        "an",
        "ge"
      ],
      [
        "ĠA",
        "ust"
      ],
      [
        "th",
        "ough"
      ],
      [
        "Ġli",
        "ke"
      ],
      [
        "it",
        "al"
      ],
      [
        "ĠW",
        "ar"
      ],
      [
        "Ġgovern",
        "ment"
      ],
      [
        "al",
        "e"
      ],
      [
        "b",
        "le"
      ],
      [
        "Ġo",
        "cc"
      ],
      [
        "Ġm",
        "in"
      ],
      [
        "ĠS",
        "p"
      ],
      [
        "ĠCh",
        "rist"
      ],
      [
        "l",
        "o"
      ],
      [
        "ĠS",
        "c"
      ],
      [
        "ĠSt",
        "ates"
      ],
      [
        "om",
        "an"
      ],
      [
        "ra",
        "ph"
      ],
      [
        "Ġw",
        "ar"
      ],
      [
        "Ġsm",
        "all"
      ],
      [
        "00",
        "0"
      ],
      [
        "om",
        "et"
      ],
      [
        "act",
        "er"
      ],
      [
        "iv",
        "ed"
      ],
      [
        "a",
        "e"
      ],
      [
        "ro",
        "l"
      ],
      [
        "Ġ",
        "ed"
      ],
      [
        "Ġbe",
        "fore"
      ],
      [
        "Ġw",
        "ill"
      ],
      [
        "Ġs",
        "he"
      ],
      [
        "Ġse",
        "cond"
      ],
      [
        "ire",
        "d"
      ],
      [
        "Ġdiffer",
        "ent"
      ],
      [
        "an",
        "k"
      ],
      [
        "Ġ",
        ","
      ],
      [
        "are",
        "d"
      ],
      [
        "Ġf",
        "am"
      ],
      [
        "Ġm",
        "ed"
      ],
      [
        "ĠJ",
        "oh"
      ],
      [
        "ur",
        "ch"
      ],
      [
        "Ġ1",
        "7"
      ],
      [
        "ut",
        "e"
      ],
      [
        "g",
        "y"
      ],
      [
        "ion",
        "al"
      ],
      [
        "Ġe",
        "ach"
      ],
      [
        "Ġdis",
        "c"
      ],
      [
        "Ġdes",
        "ign"
      ],
      [
        "Ġsever",
        "al"
      ],
      [
        "iv",
        "es"
      ],
      [
        "Ġm",
        "ajor"
      ],
      [
        "en",
        "e"
      ],
      [
        "Ġb",
        "ro"
      ],
      [
        "Ġsupp",
        "ort"
      ],
      [
        "ch",
        "n"
      ],
      [
        "el",
        "s"
      ],
      [
        "Ġbe",
        "l"
      ],
      [
        "Ġbec",
        "ause"
      ],
      [
        "Ġpro",
        "g"
      ],
      [
        "ĠA",
        "b"
      ],
      [
        "Ġinclud",
        "e"
      ],
      [
        "is",
        "ed"
      ],
      [
        "ĠG",
        "erm"
      ],
      [
        "Ġex",
        "ample"
      ],
      [
        "Ġar",
        "m"
      ],
      [
        "et",
        "y"
      ],
      [
        "Ġrem",
        "ain"
      ],
      [
        "Ġ",
        "if"
      ],
      [
        "Ġl",
        "aw"
      ],
      [
        "ak",
        "ing"
      ],
      [
        "cc",
        "ess"
      ],
      [
        "i",
        "od"
      ],
      [
        "Ġh",
        "um"
      ],
      [
        "Ġeff",
        "ect"
      ],
      [
        "ĠP",
        "ro"
      ],
      [
        "ĠW",
        "or"
      ],
      [
        "ord",
        "ing"
      ],
      [
        "m",
        "in"
      ],
      [
        "Ġagain",
        "st"
      ],
      [
        "Ġl",
        "and"
      ],
      [
        "ri",
        "v"
      ],
      [
        "Ġs",
        "ch"
      ],
      [
        "ĠH",
        "owever"
      ],
      [
        "ĠThe",
        "re"
      ],
      [
        "Ġs",
        "ince"
      ],
      [
        "i",
        "ver"
      ],
      [
        "a",
        "id"
      ],
      [
        "ĠJoh",
        "n"
      ],
      [
        "oin",
        "t"
      ],
      [
        "Ġcomm",
        "un"
      ],
      [
        "Ġ",
        "Z"
      ],
      [
        "as",
        "h"
      ],
      [
        "Ġn",
        "ame"
      ],
      [
        "at",
        "ic"
      ],
      [
        "id",
        "es"
      ],
      [
        "ri",
        "es"
      ],
      [
        "id",
        "ed"
      ],
      [
        "Ġp",
        "o"
      ],
      [
        "il",
        "it"
      ],
      [
        "ic",
        "es"
      ],
      [
        "Ġst",
        "r"
      ],
      [
        "n",
        "ing"
      ],
      [
        "ir",
        "d"
      ],
      [
        "Ġtr",
        "ad"
      ],
      [
        "ĠCom",
        "m"
      ],
      [
        "Ġin",
        "cre"
      ],
      [
        "Ġf",
        "un"
      ],
      [
        "Ġf",
        "our"
      ],
      [
        "Ġpub",
        "lic"
      ],
      [
        "in",
        "a"
      ],
      [
        "Ġun",
        "til"
      ],
      [
        "Ġal",
        "low"
      ],
      [
        "c",
        "ent"
      ],
      [
        "Ġre",
        "qu"
      ],
      [
        "Ġc",
        "ult"
      ],
      [
        "o",
        "x"
      ],
      [
        "Ġle",
        "g"
      ],
      [
        "Ġb",
        "ook"
      ],
      [
        "ul",
        "ation"
      ],
      [
        "ĠW",
        "h"
      ],
      [
        "Ġ",
        "6"
      ],
      [
        "Ġin",
        "s"
      ],
      [
        "Ġd",
        "et"
      ],
      [
        "ĠWor",
        "ld"
      ],
      [
        "2",
        "0"
      ],
      [
        "u",
        "ed"
      ],
      [
        "ĠEng",
        "lish"
      ],
      [
        "le",
        "y"
      ],
      [
        "ĠC",
        "l"
      ],
      [
        "g",
        "et"
      ],
      [
        "Ġb",
        "ack"
      ],
      [
        "w",
        "ay"
      ],
      [
        "Ġre",
        "f"
      ],
      [
        "l",
        "u"
      ],
      [
        "er",
        "al"
      ],
      [
        "Ġp",
        "ower"
      ],
      [
        "if",
        "ied"
      ],
      [
        "ition",
        "s"
      ],
      [
        "g",
        "ed"
      ],
      [
        "Ġcount",
        "ry"
      ],
      [
        "Ġor",
        "gan"
      ],
      [
        "con",
        "om"
      ],
      [
        "v",
        "en"
      ],
      [
        "y",
        "n"
      ],
      [
        "ĠP",
        "h"
      ],
      [
        "ru",
        "ct"
      ],
      [
        "Ġm",
        "at"
      ],
      [
        "Ġ",
        "7"
      ],
      [
        "y",
        "l"
      ],
      [
        "Ġe",
        "qu"
      ],
      [
        "Ġim",
        "port"
      ],
      [
        "m",
        "ber"
      ],
      [
        "ra",
        "ft"
      ],
      [
        "Ġth",
        "ough"
      ],
      [
        "ar",
        "m"
      ],
      [
        "i",
        "us"
      ],
      [
        "Ġc",
        "ap"
      ],
      [
        "iss",
        "ion"
      ],
      [
        "Ġsu",
        "ccess"
      ],
      [
        "Ġv",
        "al"
      ],
      [
        "as",
        "es"
      ],
      [
        "i",
        "ence"
      ],
      [
        "ĠThe",
        "y"
      ],
      [
        "Ġs",
        "ing"
      ],
      [
        "Ġele",
        "ct"
      ],
      [
        "t",
        "o"
      ],
      [
        "Ġpro",
        "cess"
      ],
      [
        "s",
        "on"
      ],
      [
        "Ġc",
        "or"
      ],
      [
        "le",
        "ct"
      ],
      [
        "Ġb",
        "at"
      ],
      [
        "ĠUn",
        "iversity"
      ],
      [
        "Ġo",
        "p"
      ],
      [
        "x",
        "t"
      ],
      [
        "p",
        "or"
      ],
      [
        "en",
        "n"
      ],
      [
        "r",
        "is"
      ],
      [
        "i",
        "er"
      ],
      [
        "Ġpos",
        "s"
      ],
      [
        "Ġsh",
        "ow"
      ],
      [
        "tern",
        "ational"
      ],
      [
        "Ġre",
        "le"
      ],
      [
        "ĠC",
        "an"
      ],
      [
        "n",
        "er"
      ],
      [
        "in",
        "c"
      ],
      [
        "op",
        "h"
      ],
      [
        "as",
        "on"
      ],
      [
        "end",
        "ed"
      ],
      [
        "en",
        "g"
      ],
      [
        "r",
        "ad"
      ],
      [
        "Ġre",
        "fer"
      ],
      [
        "r",
        "ing"
      ],
      [
        "Ġth",
        "ose"
      ],
      [
        "ros",
        "s"
      ],
      [
        "ĠThe",
        "se"
      ],
      [
        "em",
        "ent"
      ],
      [
        "Ġper",
        "iod"
      ],
      [
        "Ġb",
        "ased"
      ],
      [
        "Ġd",
        "id"
      ],
      [
        "ou",
        "se"
      ],
      [
        "Ġdesc",
        "rib"
      ],
      [
        "c",
        "om"
      ],
      [
        "Ġcon",
        "f"
      ],
      [
        "Ġc",
        "ur"
      ],
      [
        "Ġp",
        "ar"
      ],
      [
        "Ġr",
        "ight"
      ],
      [
        "a",
        "im"
      ],
      [
        "o",
        "ot"
      ],
      [
        "iz",
        "e"
      ],
      [
        "Ġprog",
        "ram"
      ],
      [
        "ĠI",
        "I"
      ],
      [
        "n",
        "ess"
      ],
      [
        "ro",
        "du"
      ],
      [
        "Ġoff",
        "ic"
      ],
      [
        "pe",
        "ct"
      ],
      [
        "il",
        "ar"
      ],
      [
        "Ġpol",
        "it"
      ],
      [
        "Ġpers",
        "on"
      ],
      [
        "ul",
        "l"
      ],
      [
        "Ġl",
        "ife"
      ],
      [
        "ri",
        "pt"
      ],
      [
        "Ġor",
        "der"
      ],
      [
        "et",
        "s"
      ],
      [
        "ent",
        "ly"
      ],
      [
        "iz",
        "ation"
      ],
      [
        "en",
        "ces"
      ],
      [
        "r",
        "ation"
      ],
      [
        "res",
        "ent"
      ],
      [
        "Ġa",
        "round"
      ],
      [
        "Ġd",
        "iv"
      ],
      [
        "Ġare",
        "a"
      ],
      [
        "Ġn",
        "ear"
      ],
      [
        "ĠO",
        "r"
      ],
      [
        "Ġcl",
        "ass"
      ],
      [
        "ĠAr",
        "m"
      ],
      [
        "an",
        "e"
      ],
      [
        "Ġn",
        "on"
      ],
      [
        "Ġs",
        "l"
      ],
      [
        "Ġm",
        "ar"
      ],
      [
        "Ġlangu",
        "age"
      ],
      [
        "Ġev",
        "en"
      ],
      [
        "ĠC",
        "ar"
      ],
      [
        "Ġbe",
        "gan"
      ],
      [
        "Ġ19",
        "4"
      ],
      [
        "Ġdire",
        "ct"
      ],
      [
        "ĠA",
        "fter"
      ],
      [
        "od",
        "y"
      ],
      [
        "d",
        "om"
      ],
      [
        "Ġwith",
        "in"
      ],
      [
        "Ġest",
        "ab"
      ],
      [
        "Ġk",
        "e"
      ],
      [
        "ac",
        "ed"
      ],
      [
        "p",
        "ar"
      ],
      [
        "av",
        "ing"
      ],
      [
        "Ġus",
        "ing"
      ],
      [
        "Ġrec",
        "ord"
      ],
      [
        "m",
        "p"
      ],
      [
        "Ġte",
        "chn"
      ],
      [
        "Ġmod",
        "ern"
      ],
      [
        "Ġex",
        "pl"
      ],
      [
        "Ġde",
        "ath"
      ],
      [
        "ĠAf",
        "ric"
      ],
      [
        "Ġchar",
        "acter"
      ],
      [
        "r",
        "id"
      ],
      [
        "Ġbel",
        "ie"
      ],
      [
        "od",
        "e"
      ],
      [
        "Ġl",
        "it"
      ],
      [
        "Ġam",
        "ong"
      ],
      [
        "Ġt",
        "yp"
      ],
      [
        "ĠA",
        "lex"
      ],
      [
        "am",
        "ed"
      ],
      [
        "e",
        "g"
      ],
      [
        "Ġfollow",
        "ing"
      ],
      [
        "Ġper",
        "form"
      ],
      [
        "Ġa",
        "v"
      ],
      [
        "qu",
        "e"
      ],
      [
        "Ġp",
        "ass"
      ],
      [
        "Ġm",
        "uch"
      ],
      [
        "Ġ19",
        "5"
      ],
      [
        "land",
        "s"
      ],
      [
        "Ġinf",
        "lu"
      ],
      [
        "ĠG",
        "ree"
      ],
      [
        "or",
        "ies"
      ],
      [
        "Ġg",
        "iv"
      ],
      [
        "Ġex",
        "per"
      ],
      [
        "og",
        "raph"
      ],
      [
        "Ġpro",
        "p"
      ],
      [
        "e",
        "c"
      ],
      [
        "Ġo",
        "pp"
      ],
      [
        "o",
        "ber"
      ],
      [
        "g",
        "en"
      ],
      [
        "Ġ1",
        "6"
      ],
      [
        "Ġcomp",
        "ut"
      ],
      [
        "Ġw",
        "ater"
      ],
      [
        "Ġe",
        "conom"
      ],
      [
        "Ġser",
        "ies"
      ],
      [
        "h",
        "or"
      ],
      [
        "ial",
        "ly"
      ],
      [
        "ĠAust",
        "ral"
      ],
      [
        "ĠM",
        "ar"
      ],
      [
        "t",
        "ic"
      ],
      [
        "Ġ",
        "'"
      ],
      [
        "Ġapp",
        "ro"
      ],
      [
        "Ġst",
        "and"
      ],
      [
        "ĠS",
        "ch"
      ],
      [
        "Ġad",
        "v"
      ],
      [
        "on",
        "y"
      ],
      [
        "ep",
        "end"
      ],
      [
        "es",
        "tern"
      ],
      [
        "Ġte",
        "am"
      ],
      [
        "ĠS",
        "ome"
      ],
      [
        "ĠS",
        "outh"
      ],
      [
        "i",
        "k"
      ],
      [
        "Ġw",
        "ord"
      ],
      [
        "olog",
        "ical"
      ],
      [
        "Ġd",
        "ue"
      ],
      [
        "Ġcont",
        "rol"
      ],
      [
        "Ġm",
        "ark"
      ],
      [
        "Ġst",
        "at"
      ],
      [
        "b",
        "all"
      ],
      [
        "v",
        "es"
      ],
      [
        "re",
        "ad"
      ],
      [
        "Ġres",
        "p"
      ],
      [
        "Ġs",
        "ol"
      ],
      [
        "Ġmus",
        "ic"
      ],
      [
        "Ġc",
        "our"
      ],
      [
        "ate",
        "ly"
      ],
      [
        "is",
        "ter"
      ],
      [
        "Ġconsid",
        "ered"
      ],
      [
        "Ġ1",
        "5"
      ],
      [
        "ilit",
        "ary"
      ],
      [
        "Ġre",
        "st"
      ],
      [
        "Ġb",
        "as"
      ],
      [
        "e",
        "b"
      ],
      [
        "ĠC",
        "ent"
      ],
      [
        "en",
        "se"
      ],
      [
        "am",
        "ent"
      ],
      [
        "id",
        "s"
      ],
      [
        "and",
        "er"
      ],
      [
        "ro",
        "w"
      ],
      [
        "ĠK",
        "ing"
      ],
      [
        "ĠN",
        "orth"
      ],
      [
        "Ġan",
        "n"
      ],
      [
        "Ġst",
        "ill"
      ],
      [
        "Ġpop",
        "ular"
      ],
      [
        "i",
        "or"
      ],
      [
        "ition",
        "al"
      ],
      [
        "Ġen",
        "g"
      ],
      [
        "ĠB",
        "y"
      ],
      [
        "ĠN",
        "ational"
      ],
      [
        "Ġal",
        "ong"
      ],
      [
        "Ġn",
        "ow"
      ],
      [
        "Ġ",
        "very"
      ],
      [
        "Ġ",
        "es"
      ],
      [
        "in",
        "k"
      ],
      [
        "Ġh",
        "and"
      ],
      [
        "p",
        "le"
      ],
      [
        "ard",
        "s"
      ],
      [
        "Ġf",
        "in"
      ],
      [
        "Ġcomp",
        "le"
      ],
      [
        "Ġg",
        "u"
      ],
      [
        "ren",
        "ch"
      ],
      [
        "c",
        "raft"
      ],
      [
        "Ġcom",
        "b"
      ],
      [
        "d",
        "e"
      ],
      [
        "Ġ",
        "Q"
      ],
      [
        "Ġd",
        "em"
      ],
      [
        "ub",
        "lic"
      ],
      [
        "Ġmem",
        "bers"
      ],
      [
        "Ġpartic",
        "ular"
      ],
      [
        "i",
        "et"
      ],
      [
        "Ġt",
        "er"
      ],
      [
        "Ġatt",
        "ack"
      ],
      [
        "Ġsim",
        "ilar"
      ],
      [
        "ri",
        "ed"
      ],
      [
        "Ġhist",
        "or"
      ],
      [
        "Ġin",
        "du"
      ],
      [
        "Ġre",
        "ce"
      ],
      [
        "Ġt",
        "em"
      ],
      [
        "ĠAn",
        "g"
      ],
      [
        "Ġop",
        "en"
      ],
      [
        "Ġspec",
        "ies"
      ],
      [
        "Ġ",
        "8"
      ],
      [
        "ĠA",
        "g"
      ],
      [
        "Ġr",
        "ad"
      ],
      [
        "Ġrep",
        "resent"
      ],
      [
        "Ġret",
        "urn"
      ],
      [
        "os",
        "s"
      ],
      [
        "o",
        "le"
      ],
      [
        "i",
        "am"
      ],
      [
        "Ġre",
        "v"
      ],
      [
        "Ġr",
        "un"
      ],
      [
        "Ġf",
        "act"
      ],
      [
        "ĠB",
        "at"
      ],
      [
        "Ġhe",
        "ad"
      ],
      [
        "Ġb",
        "o"
      ],
      [
        "Ġm",
        "ov"
      ],
      [
        "ain",
        "s"
      ],
      [
        "Ġpres",
        "ent"
      ],
      [
        "ĠP",
        "l"
      ],
      [
        "Ġ",
        "vers"
      ],
      [
        "in",
        "ation"
      ],
      [
        "om",
        "en"
      ],
      [
        "Ġvari",
        "ous"
      ],
      [
        "Ġhum",
        "an"
      ],
      [
        "at",
        "or"
      ],
      [
        "un",
        "e"
      ],
      [
        "Ġ1",
        "0"
      ],
      [
        "Ġc",
        "er"
      ],
      [
        "Ġs",
        "aid"
      ],
      [
        "ĠB",
        "ar"
      ],
      [
        "st",
        "er"
      ],
      [
        "m",
        "e"
      ],
      [
        "Ġl",
        "ed"
      ],
      [
        "ĠF",
        "rench"
      ],
      [
        "Ġwh",
        "at"
      ],
      [
        "g",
        "in"
      ],
      [
        "a",
        "f"
      ],
      [
        "ĠA",
        "ir"
      ],
      [
        "Ġre",
        "port"
      ],
      [
        "Ġf",
        "re"
      ],
      [
        "Ġpl",
        "ace"
      ],
      [
        "ren",
        "t"
      ],
      [
        "Ġa",
        "ff"
      ],
      [
        "y",
        "d"
      ],
      [
        "Ġp",
        "ract"
      ],
      [
        "c",
        "hes"
      ],
      [
        "ra",
        "b"
      ],
      [
        "ĠR",
        "oman"
      ],
      [
        "Ġimport",
        "ant"
      ],
      [
        "al",
        "ity"
      ],
      [
        "em",
        "pt"
      ],
      [
        "Ġst",
        "art"
      ],
      [
        "Ġv",
        "is"
      ],
      [
        "um",
        "ent"
      ],
      [
        "ug",
        "ust"
      ],
      [
        "Ġbu",
        "ild"
      ],
      [
        "c",
        "ing"
      ],
      [
        "ĠAl",
        "l"
      ],
      [
        "Ġch",
        "ild"
      ],
      [
        "al",
        "th"
      ],
      [
        "Ġs",
        "omet"
      ],
      [
        "Ġl",
        "ine"
      ],
      [
        "h",
        "od"
      ],
      [
        "b",
        "y"
      ],
      [
        "ĠM",
        "us"
      ],
      [
        "Ġm",
        "ove"
      ],
      [
        "Ġ",
        "ve"
      ],
      [
        "Ġl",
        "ast"
      ],
      [
        "Ġb",
        "i"
      ],
      [
        "Ġc",
        "rit"
      ],
      [
        "ra",
        "y"
      ],
      [
        "a",
        "pp"
      ],
      [
        "Ġg",
        "reat"
      ],
      [
        "Ġdevelop",
        "ment"
      ],
      [
        "Ġp",
        "at"
      ],
      [
        "ĠA",
        "ugust"
      ],
      [
        "ist",
        "ic"
      ],
      [
        "ĠA",
        "cc"
      ],
      [
        "it",
        "her"
      ],
      [
        "id",
        "d"
      ],
      [
        "ive",
        "ly"
      ],
      [
        "l",
        "in"
      ],
      [
        "al",
        "es"
      ],
      [
        "Ġg",
        "ame"
      ],
      [
        "ĠB",
        "C"
      ],
      [
        "re",
        "w"
      ],
      [
        "c",
        "er"
      ],
      [
        "it",
        "es"
      ],
      [
        "Ġsch",
        "ool"
      ],
      [
        "il",
        "t"
      ],
      [
        "Ġus",
        "ually"
      ],
      [
        "Ġdevelop",
        "ed"
      ],
      [
        "Ġm",
        "ake"
      ],
      [
        "Ġcl",
        "aim"
      ],
      [
        "m",
        "s"
      ],
      [
        "Ġgiv",
        "en"
      ],
      [
        "em",
        "ber"
      ],
      [
        "Ġan",
        "im"
      ],
      [
        "Ġm",
        "ilitary"
      ],
      [
        "Ġgener",
        "al"
      ],
      [
        "m",
        "ed"
      ],
      [
        "Ġsh",
        "ort"
      ],
      [
        ".",
        "."
      ],
      [
        "Ġl",
        "ess"
      ],
      [
        "Ġm",
        "ult"
      ],
      [
        "d",
        "ay"
      ],
      [
        "ol",
        "ic"
      ],
      [
        "Ġh",
        "ome"
      ],
      [
        "Ġocc",
        "ur"
      ],
      [
        "Ġle",
        "ft"
      ],
      [
        "ĠAn",
        "d"
      ],
      [
        "t",
        "al"
      ],
      [
        "Ġ",
        "ident"
      ],
      [
        "am",
        "b"
      ],
      [
        "ĠAp",
        "ol"
      ],
      [
        "Ġinv",
        "ol"
      ],
      [
        "Ġn",
        "ational"
      ],
      [
        "ĠGerm",
        "an"
      ],
      [
        "Ġsu",
        "g"
      ],
      [
        "Ġfor",
        "mer"
      ],
      [
        "ĠU",
        "S"
      ],
      [
        "Ġbec",
        "ome"
      ],
      [
        "Ġwith",
        "out"
      ],
      [
        "Ġsign",
        "ific"
      ],
      [
        "Ġre",
        "pl"
      ],
      [
        "Ġpro",
        "per"
      ],
      [
        "Ġhist",
        "ory"
      ],
      [
        "Ġ",
        "ide"
      ],
      [
        "Ġo",
        "ld"
      ],
      [
        "oc",
        "ial"
      ],
      [
        "Ġcount",
        "ries"
      ],
      [
        "Ġf",
        "ore"
      ],
      [
        "Ġan",
        "other"
      ],
      [
        "Ġl",
        "im"
      ],
      [
        "ĠD",
        "uring"
      ],
      [
        "Ġan",
        "al"
      ],
      [
        "ut",
        "ed"
      ],
      [
        "at",
        "a"
      ],
      [
        "ĠW",
        "hen"
      ],
      [
        "b",
        "e"
      ],
      [
        "Ġsing",
        "le"
      ],
      [
        "Ġcol",
        "le"
      ],
      [
        "it",
        "ution"
      ],
      [
        "Ġne",
        "ed"
      ],
      [
        "ĠH",
        "is"
      ],
      [
        "ĠW",
        "ill"
      ],
      [
        "r",
        "and"
      ],
      [
        "Ġf",
        "ield"
      ],
      [
        "Ġin",
        "c"
      ],
      [
        "ag",
        "ue"
      ],
      [
        "T",
        "he"
      ],
      [
        "ĠAs",
        "s"
      ],
      [
        "Ġe",
        "very"
      ],
      [
        "ĠR",
        "uss"
      ],
      [
        "ĠY",
        "ork"
      ],
      [
        "as",
        "tern"
      ],
      [
        "ak",
        "es"
      ],
      [
        "Ġp",
        "ort"
      ],
      [
        "iv",
        "il"
      ],
      [
        "Ġst",
        "ruct"
      ],
      [
        "Ġpub",
        "lished"
      ],
      [
        "ot",
        "s"
      ],
      [
        "Ġde",
        "v"
      ],
      [
        "ur",
        "ther"
      ],
      [
        "ward",
        "s"
      ],
      [
        "om",
        "in"
      ],
      [
        "Ġloc",
        "al"
      ],
      [
        "Ġpr",
        "im"
      ],
      [
        "at",
        "s"
      ],
      [
        "Ġar",
        "g"
      ],
      [
        "l",
        "ine"
      ],
      [
        "w",
        "are"
      ],
      [
        "u",
        "le"
      ],
      [
        "Ġc",
        "r"
      ],
      [
        "Ġpro",
        "t"
      ],
      [
        "l",
        "ing"
      ],
      [
        "Ġst",
        "ates"
      ],
      [
        "Ġob",
        "s"
      ],
      [
        "ĠC",
        "al"
      ],
      [
        "Ġg",
        "o"
      ],
      [
        "Ġfam",
        "ily"
      ],
      [
        "Ġd",
        "own"
      ],
      [
        "z",
        "e"
      ],
      [
        "ĠE",
        "ar"
      ],
      [
        "c",
        "il"
      ],
      [
        "Ġb",
        "us"
      ],
      [
        "Ġl",
        "ate"
      ],
      [
        "ab",
        "ly"
      ],
      [
        "Ġass",
        "oci"
      ],
      [
        "an",
        "ces"
      ],
      [
        "ĠT",
        "r"
      ],
      [
        "Ġ1",
        "2"
      ],
      [
        "Ġw",
        "ay"
      ],
      [
        "Ġpolit",
        "ical"
      ],
      [
        "Ġorig",
        "in"
      ],
      [
        "Ġar",
        "ch"
      ],
      [
        "Ġh",
        "ig"
      ],
      [
        "l",
        "ess"
      ],
      [
        "a",
        "i"
      ],
      [
        "ĠEurope",
        "an"
      ],
      [
        "ro",
        "te"
      ],
      [
        "Ġis",
        "s"
      ],
      [
        "ĠG",
        "e"
      ],
      [
        "Ġf",
        "ew"
      ],
      [
        "Ġreg",
        "ion"
      ],
      [
        "ĠApol",
        "lo"
      ],
      [
        "Ġc",
        "aus"
      ],
      [
        "og",
        "n"
      ],
      [
        "pe",
        "cial"
      ],
      [
        "ĠCan",
        "ad"
      ],
      [
        "Ġv",
        "iew"
      ],
      [
        "Ġex",
        "ist"
      ],
      [
        "iv",
        "id"
      ],
      [
        "Ġr",
        "ul"
      ],
      [
        "Ġaut",
        "hor"
      ],
      [
        "Ġh",
        "owever"
      ],
      [
        "Ġm",
        "ill"
      ],
      [
        "ĠCh",
        "urch"
      ],
      [
        "Ġ",
        "9"
      ],
      [
        "ir",
        "on"
      ],
      [
        "Ġcon",
        "d"
      ],
      [
        "Ġt",
        "reat"
      ],
      [
        "on",
        "es"
      ],
      [
        "Ġch",
        "ang"
      ],
      [
        "ol",
        "ution"
      ],
      [
        "Ġs",
        "k"
      ],
      [
        "Ġbe",
        "h"
      ],
      [
        "ent",
        "ial"
      ],
      [
        "Ġle",
        "vel"
      ],
      [
        "Ġ20",
        "2"
      ],
      [
        "ater",
        "ial"
      ],
      [
        "Ġb",
        "ody"
      ],
      [
        "ĠB",
        "o"
      ],
      [
        "e",
        "le"
      ],
      [
        "op",
        "s"
      ],
      [
        "Ġhe",
        "l"
      ],
      [
        "Ġinclud",
        "ed"
      ],
      [
        "Ġg",
        "l"
      ],
      [
        "ĠM",
        "ay"
      ],
      [
        "Ġind",
        "epend"
      ],
      [
        "a",
        "u"
      ],
      [
        "Ġfun",
        "ction"
      ],
      [
        "Ġindu",
        "st"
      ],
      [
        "ure",
        "d"
      ],
      [
        "Ġm",
        "en"
      ],
      [
        "le",
        "ar"
      ],
      [
        "Ġhe",
        "ld"
      ],
      [
        "Ġte",
        "le"
      ],
      [
        "er",
        "y"
      ],
      [
        "ĠP",
        "ar"
      ],
      [
        "as",
        "ter"
      ],
      [
        "Ġpro",
        "f"
      ],
      [
        "Ġk",
        "ill"
      ],
      [
        "ĠR",
        "ep"
      ],
      [
        "Ġp",
        "oint"
      ],
      [
        "id",
        "ence"
      ],
      [
        "s",
        "ide"
      ],
      [
        "Ġan",
        "c"
      ],
      [
        "Ġs",
        "our"
      ],
      [
        "ir",
        "c"
      ],
      [
        "Ġpro",
        "ble"
      ],
      [
        "Ġint",
        "rodu"
      ],
      [
        "Ġp",
        "ur"
      ],
      [
        "e",
        "ad"
      ],
      [
        "ore",
        "d"
      ],
      [
        "ĠP",
        "r"
      ],
      [
        "ĠO",
        "ne"
      ],
      [
        "her",
        "n"
      ],
      [
        "Ġal",
        "though"
      ],
      [
        "Ġc",
        "ase"
      ],
      [
        "Ġ1",
        "1"
      ],
      [
        "Ġd",
        "ay"
      ],
      [
        "Ġpop",
        "ulation"
      ],
      [
        "ru",
        "ction"
      ],
      [
        "Ġsignific",
        "ant"
      ],
      [
        "o",
        "on"
      ],
      [
        "ra",
        "in"
      ],
      [
        "Ġto",
        "ok"
      ],
      [
        "b",
        "it"
      ],
      [
        "Ġc",
        "amp"
      ],
      [
        "ent",
        "ion"
      ],
      [
        "ab",
        "ility"
      ],
      [
        "Ġ19",
        "3"
      ],
      [
        "er",
        "ing"
      ],
      [
        "Ġev",
        "ent"
      ],
      [
        "Ġpro",
        "m"
      ],
      [
        "form",
        "ation"
      ],
      [
        "ivid",
        "ual"
      ],
      [
        "Ġatt",
        "empt"
      ],
      [
        "ĠM",
        "in"
      ],
      [
        "ĠE",
        "x"
      ],
      [
        "ric",
        "t"
      ],
      [
        "ĠCh",
        "ar"
      ],
      [
        "Ġin",
        "it"
      ],
      [
        "se",
        "qu"
      ],
      [
        "ot",
        "t"
      ],
      [
        "Ġph",
        "ys"
      ],
      [
        "Ġj",
        "ust"
      ],
      [
        "Ġsp",
        "ace"
      ],
      [
        "p",
        "ut"
      ],
      [
        "Ġw",
        "rote"
      ],
      [
        "Ġob",
        "ject"
      ],
      [
        "Ġsug",
        "gest"
      ],
      [
        "ĠW",
        "est"
      ],
      [
        "g",
        "es"
      ],
      [
        "Ġse",
        "par"
      ],
      [
        "Ġm",
        "aterial"
      ],
      [
        "Ġsystem",
        "s"
      ],
      [
        "ĠF",
        "ran"
      ],
      [
        "ĠAcc",
        "ording"
      ],
      [
        "Ġsh",
        "ould"
      ],
      [
        "ort",
        "hern"
      ],
      [
        "Ġdo",
        "es"
      ],
      [
        "iv",
        "al"
      ],
      [
        ".",
        ","
      ],
      [
        "ĠG",
        "od"
      ],
      [
        "it",
        "ive"
      ],
      [
        "Ġre",
        "ad"
      ],
      [
        "at",
        "ural"
      ],
      [
        "Ġmet",
        "hod"
      ],
      [
        "Ġre",
        "du"
      ],
      [
        "Ġl",
        "ow"
      ],
      [
        "Ġact",
        "iv"
      ],
      [
        "Ġh",
        "aving"
      ],
      [
        "Ġare",
        "as"
      ],
      [
        "ĠO",
        "ct"
      ],
      [
        "Ġrel",
        "ig"
      ],
      [
        "Ġlar",
        "gest"
      ],
      [
        "ĠGree",
        "k"
      ],
      [
        "Ġn",
        "amed"
      ],
      [
        "ĠD",
        "av"
      ],
      [
        "a",
        "un"
      ],
      [
        "Ġ1",
        "4"
      ],
      [
        "Ġprodu",
        "ced"
      ],
      [
        "Ġprodu",
        "ct"
      ],
      [
        "r",
        "ated"
      ],
      [
        "em",
        "b"
      ],
      [
        "m",
        "ost"
      ],
      [
        "ĠE",
        "d"
      ],
      [
        "Ġro",
        "le"
      ],
      [
        "Ġwrit",
        "ten"
      ],
      [
        "f",
        "or"
      ],
      [
        "an",
        "u"
      ],
      [
        "ĠB",
        "ro"
      ],
      [
        "Ġc",
        "al"
      ],
      [
        "Ġw",
        "ide"
      ],
      [
        "ak",
        "en"
      ],
      [
        "Ġorig",
        "inal"
      ],
      [
        "ĠChrist",
        "ian"
      ],
      [
        "e",
        "k"
      ],
      [
        "Ġind",
        "ividual"
      ],
      [
        "Ġb",
        "and"
      ],
      [
        "Ġl",
        "ight"
      ],
      [
        "Ġestab",
        "lished"
      ],
      [
        "Ġt",
        "imes"
      ],
      [
        "Ġc",
        "ell"
      ],
      [
        "Ġt",
        "est"
      ],
      [
        "ain",
        "ed"
      ],
      [
        "Ġbl",
        "ack"
      ],
      [
        "oun",
        "cil"
      ],
      [
        "ĠB",
        "er"
      ],
      [
        "Ġpre",
        "v"
      ],
      [
        "Ġe",
        "p"
      ],
      [
        "Ġhel",
        "p"
      ],
      [
        "Ġ",
        "er"
      ],
      [
        "Ġde",
        "cl"
      ],
      [
        "Ġsy",
        "m"
      ],
      [
        "Ġn",
        "orth"
      ],
      [
        "c",
        "he"
      ],
      [
        "Ġappe",
        "ar"
      ],
      [
        "iv",
        "ing"
      ],
      [
        "in",
        "ess"
      ],
      [
        "al",
        "f"
      ],
      [
        "Ġ1",
        "3"
      ],
      [
        "ĠUn",
        "ion"
      ],
      [
        "r",
        "il"
      ],
      [
        "Ġme",
        "an"
      ],
      [
        "Ġre",
        "se"
      ],
      [
        "ĠSe",
        "pt"
      ],
      [
        "a",
        "pe"
      ],
      [
        "pl",
        "oy"
      ],
      [
        "Ġre",
        "al"
      ],
      [
        "Ġm",
        "ust"
      ],
      [
        "Ġm",
        "ag"
      ],
      [
        "ĠH",
        "er"
      ],
      [
        "om",
        "b"
      ],
      [
        "end",
        "s"
      ],
      [
        "Ġw",
        "in"
      ],
      [
        "a",
        "ugh"
      ],
      [
        "y",
        "pe"
      ],
      [
        "h",
        "am"
      ],
      [
        "Ġe",
        "ither"
      ],
      [
        "Ġbu",
        "ilt"
      ],
      [
        "c",
        "hed"
      ],
      [
        "ct",
        "or"
      ],
      [
        "Ġsomet",
        "imes"
      ],
      [
        "a",
        "ur"
      ],
      [
        "a",
        "ut"
      ],
      [
        "Ġt",
        "ake"
      ],
      [
        "Ġserv",
        "ice"
      ],
      [
        "ot",
        "e"
      ],
      [
        "Ġb",
        "re"
      ],
      [
        "w",
        "ays"
      ],
      [
        "Ġf",
        "ive"
      ],
      [
        "i",
        "pp"
      ],
      [
        "al",
        "k"
      ],
      [
        "ab",
        "or"
      ],
      [
        "ther",
        "n"
      ],
      [
        "om",
        "s"
      ],
      [
        "Ġk",
        "ing"
      ],
      [
        "ff",
        "ic"
      ],
      [
        "ĠA",
        "rab"
      ],
      [
        "il",
        "os"
      ],
      [
        "Ġrele",
        "ased"
      ],
      [
        "y",
        "m"
      ],
      [
        "Ġt",
        "urn"
      ],
      [
        "ber",
        "t"
      ],
      [
        "Ġthe",
        "ory"
      ],
      [
        "ĠEng",
        "land"
      ],
      [
        "Ġs",
        "ent"
      ],
      [
        "an",
        "es"
      ],
      [
        "ĠO",
        "ther"
      ],
      [
        "Ġprodu",
        "ction"
      ],
      [
        "Ġm",
        "y"
      ],
      [
        "Ġgro",
        "w"
      ],
      [
        "z",
        "er"
      ],
      [
        "at",
        "ures"
      ],
      [
        "Ġd",
        "el"
      ],
      [
        "Ġother",
        "s"
      ],
      [
        "Ġe",
        "l"
      ],
      [
        "um",
        "b"
      ],
      [
        "Ġdescrib",
        "ed"
      ],
      [
        "Ġplay",
        "ed"
      ],
      [
        "ri",
        "an"
      ],
      [
        "is",
        "on"
      ],
      [
        "u",
        "ly"
      ],
      [
        "ou",
        "thern"
      ],
      [
        "Ġg",
        "ames"
      ],
      [
        "Ġto",
        "p"
      ],
      [
        "Ġgener",
        "ally"
      ],
      [
        "ac",
        "y"
      ],
      [
        "Ġb",
        "ase"
      ],
      [
        "in",
        "ing"
      ],
      [
        "Ġlangu",
        "ages"
      ],
      [
        "Ġs",
        "ocial"
      ],
      [
        "en",
        "cy"
      ],
      [
        "ĠAl",
        "though"
      ],
      [
        "Ġs",
        "ix"
      ],
      [
        "l",
        "er"
      ],
      [
        "Ġs",
        "w"
      ],
      [
        "pecial",
        "ly"
      ],
      [
        "Ġs",
        "outh"
      ],
      [
        "ĠAmeric",
        "a"
      ],
      [
        "Ġstr",
        "ong"
      ],
      [
        "us",
        "ed"
      ],
      [
        "Ġal",
        "b"
      ],
      [
        "Ġstud",
        "y"
      ],
      [
        "f",
        "ace"
      ],
      [
        "ĠSept",
        "ember"
      ],
      [
        "et",
        "h"
      ],
      [
        "ĠG",
        "en"
      ],
      [
        "Ġle",
        "t"
      ],
      [
        "il",
        "le"
      ],
      [
        "Ġ",
        "Ġ"
      ],
      [
        "Ġt",
        "it"
      ],
      [
        "er",
        "gy"
      ],
      [
        "over",
        "ed"
      ],
      [
        "Ġd",
        "est"
      ],
      [
        "ur",
        "g"
      ],
      [
        "he",
        "re"
      ],
      [
        "ect",
        "ed"
      ],
      [
        "ĠH",
        "ist"
      ],
      [
        "y",
        "le"
      ],
      [
        "ac",
        "es"
      ],
      [
        "Ġoffic",
        "ial"
      ],
      [
        "Ġrel",
        "ations"
      ],
      [
        "ar",
        "ies"
      ],
      [
        "Ġgroup",
        "s"
      ],
      [
        "ĠWill",
        "iam"
      ],
      [
        "Ġh",
        "ow"
      ],
      [
        "Ġwor",
        "ks"
      ],
      [
        "Ġpos",
        "ition"
      ],
      [
        "s",
        "elf"
      ],
      [
        "c",
        "o"
      ],
      [
        "Ġm",
        "ass"
      ],
      [
        "Ġspec",
        "ial"
      ],
      [
        "b",
        "an"
      ],
      [
        "Ġc",
        "irc"
      ],
      [
        "are",
        "n"
      ],
      [
        "Ġf",
        "ree"
      ],
      [
        "ĠA",
        "ct"
      ],
      [
        "Ġear",
        "li"
      ],
      [
        "Ġ",
        "ver"
      ],
      [
        "re",
        "t"
      ],
      [
        "inc",
        "ip"
      ],
      [
        "un",
        "g"
      ],
      [
        "Ġs",
        "on"
      ],
      [
        "Ġf",
        "urther"
      ],
      [
        "ĠWh",
        "ile"
      ],
      [
        "re",
        "en"
      ],
      [
        "ond",
        "on"
      ],
      [
        "Ġc",
        "ame"
      ],
      [
        "ĠM",
        "any"
      ],
      [
        "Ġv",
        "ol"
      ],
      [
        "f",
        "ic"
      ],
      [
        "Ġm",
        "ot"
      ],
      [
        "ip",
        "s"
      ],
      [
        "ĠS",
        "he"
      ],
      [
        "ĠJ",
        "ew"
      ],
      [
        "Ġcomp",
        "any"
      ],
      [
        "c",
        "ul"
      ],
      [
        "anu",
        "ary"
      ],
      [
        "Ġs",
        "ong"
      ],
      [
        "Ġadd",
        "ition"
      ],
      [
        "Ġposs",
        "ible"
      ],
      [
        "ĠW",
        "ith"
      ],
      [
        "Ġr",
        "ather"
      ],
      [
        "ĠBl",
        "ack"
      ],
      [
        "b",
        "s"
      ],
      [
        "b",
        "on"
      ],
      [
        "Ġp",
        "ost"
      ],
      [
        "ĠA",
        "c"
      ],
      [
        "ĠB",
        "el"
      ],
      [
        "end",
        "ing"
      ],
      [
        "v",
        "ision"
      ],
      [
        "as",
        "ing"
      ],
      [
        "ĠB",
        "r"
      ],
      [
        "Ġcre",
        "ated"
      ],
      [
        "Ġvers",
        "ion"
      ],
      [
        "ĠOct",
        "ober"
      ],
      [
        "Ġsy",
        "n"
      ],
      [
        "ĠRep",
        "ublic"
      ],
      [
        "w",
        "ork"
      ],
      [
        "Ġth",
        "ird"
      ],
      [
        "i",
        "ation"
      ],
      [
        "ĠG",
        "u"
      ],
      [
        "ĠJ",
        "anuary"
      ],
      [
        "os",
        "p"
      ],
      [
        "if",
        "y"
      ],
      [
        "m",
        "on"
      ],
      [
        "ra",
        "p"
      ],
      [
        "Ġ",
        "ri"
      ],
      [
        "ĠAlex",
        "ander"
      ],
      [
        "s",
        "h"
      ],
      [
        "Ġter",
        "rit"
      ],
      [
        "Ġ19",
        "1"
      ],
      [
        "ĠP",
        "art"
      ],
      [
        "Ġr",
        "ange"
      ],
      [
        "rid",
        "ge"
      ],
      [
        "ce",
        "mber"
      ],
      [
        "Ġfor",
        "ces"
      ],
      [
        "ific",
        "ation"
      ],
      [
        "le",
        "t"
      ],
      [
        "Ġexp",
        "ress"
      ],
      [
        "ĠE",
        "mp"
      ],
      [
        "Ġav",
        "ail"
      ],
      [
        "Ġpart",
        "s"
      ],
      [
        "the",
        "n"
      ],
      [
        "oci",
        "ety"
      ],
      [
        "Ġcer",
        "tain"
      ],
      [
        "ĠH",
        "ar"
      ],
      [
        "ove",
        "mber"
      ],
      [
        "Ġc",
        "hem"
      ],
      [
        "ĠL",
        "ondon"
      ],
      [
        "ĠDav",
        "id"
      ],
      [
        "at",
        "in"
      ],
      [
        "s",
        "c"
      ],
      [
        "av",
        "y"
      ],
      [
        "Ġcur",
        "rent"
      ],
      [
        "r",
        "ance"
      ],
      [
        "et",
        "ic"
      ],
      [
        "Ġt",
        "ri"
      ],
      [
        "ĠJ",
        "uly"
      ],
      [
        "Ġs",
        "old"
      ],
      [
        "ĠIn",
        "ternational"
      ],
      [
        "ĠB",
        "ook"
      ],
      [
        "Ġes",
        "pecially"
      ],
      [
        "ĠM",
        "arch"
      ],
      [
        "Ġen",
        "c"
      ],
      [
        "l",
        "or"
      ],
      [
        "ĠE",
        "ast"
      ],
      [
        "ut",
        "ions"
      ],
      [
        "Ġs",
        "um"
      ],
      [
        "Ġme",
        "as"
      ],
      [
        "ĠDe",
        "cember"
      ],
      [
        "Ġ",
        "-"
      ],
      [
        "Ġ",
        "X"
      ],
      [
        "Ġto",
        "wn"
      ],
      [
        "Ġnum",
        "bers"
      ],
      [
        "ar",
        "ian"
      ],
      [
        "ĠAp",
        "ril"
      ],
      [
        "a",
        "ul"
      ],
      [
        "en",
        "ced"
      ],
      [
        "ĠM",
        "on"
      ],
      [
        "ĠN",
        "ovember"
      ],
      [
        "Ġair",
        "craft"
      ],
      [
        "Ġa",
        "st"
      ],
      [
        "Ġb",
        "ar"
      ],
      [
        "Ġcomp",
        "lex"
      ],
      [
        "ict",
        "ion"
      ],
      [
        "op",
        "e"
      ],
      [
        "Ġf",
        "ood"
      ],
      [
        "Ġg",
        "ood"
      ],
      [
        "e",
        "um"
      ],
      [
        "Ġs",
        "ide"
      ],
      [
        "Ġcl",
        "ose"
      ],
      [
        "Ġcomp",
        "et"
      ],
      [
        "Ġcontin",
        "ued"
      ],
      [
        "B",
        "C"
      ],
      [
        "Ġcap",
        "ital"
      ],
      [
        "ĠM",
        "ed"
      ],
      [
        "ĠGe",
        "or"
      ],
      [
        "ari",
        "ly"
      ],
      [
        "Ġbro",
        "ad"
      ],
      [
        "Ġrec",
        "ogn"
      ],
      [
        "Ġcomput",
        "er"
      ],
      [
        "ate",
        "g"
      ],
      [
        "Ġl",
        "ist"
      ],
      [
        "Ġn",
        "atural"
      ],
      [
        "Ġd",
        "ata"
      ],
      [
        "ĠJ",
        "une"
      ],
      [
        "ĠW",
        "estern"
      ],
      [
        "m",
        "ing"
      ],
      [
        "Ġinter",
        "est"
      ],
      [
        "p",
        "s"
      ],
      [
        "Ġp",
        "ri"
      ],
      [
        "Ġp",
        "ot"
      ],
      [
        "ĠP",
        "ress"
      ],
      [
        "Ġele",
        "ments"
      ],
      [
        "idd",
        "le"
      ],
      [
        "pl",
        "es"
      ],
      [
        "li",
        "ke"
      ],
      [
        "Ġp",
        "riv"
      ],
      [
        "Ġed",
        "uc"
      ],
      [
        "Ġobs",
        "erv"
      ],
      [
        "Ġalb",
        "um"
      ],
      [
        "al",
        "d"
      ],
      [
        "her",
        "s"
      ],
      [
        "al",
        "y"
      ],
      [
        "th",
        "s"
      ],
      [
        "er",
        "t"
      ],
      [
        "Ġc",
        "are"
      ],
      [
        "Ġbat",
        "tle"
      ],
      [
        "ĠAr",
        "t"
      ],
      [
        "Ġin",
        "ternational"
      ],
      [
        "Ġab",
        "s"
      ],
      [
        "ĠJ",
        "ap"
      ],
      [
        "Ġfre",
        "qu"
      ],
      [
        "oun",
        "g"
      ],
      [
        "Ġmill",
        "ion"
      ],
      [
        "ĠEmp",
        "ire"
      ],
      [
        "Ġf",
        "ail"
      ],
      [
        "av",
        "es"
      ],
      [
        "at",
        "ter"
      ],
      [
        "ra",
        "g"
      ],
      [
        "Ġc",
        "ivil"
      ],
      [
        "ĠA",
        "pp"
      ],
      [
        "ie",
        "f"
      ],
      [
        "ron",
        "t"
      ],
      [
        "Ġmem",
        "ber"
      ],
      [
        "im",
        "ent"
      ],
      [
        "oy",
        "al"
      ],
      [
        "l",
        "ation"
      ],
      [
        "Ġh",
        "old"
      ],
      [
        "oun",
        "ced"
      ],
      [
        "Ġsub",
        "ject"
      ],
      [
        "Ġac",
        "cept"
      ],
      [
        "m",
        "it"
      ],
      [
        "w",
        "h"
      ],
      [
        "er",
        "ation"
      ],
      [
        "Ġform",
        "ed"
      ],
      [
        "Ġc",
        "at"
      ],
      [
        "an",
        "a"
      ],
      [
        "ru",
        "g"
      ],
      [
        "ens",
        "ive"
      ],
      [
        "ch",
        "an"
      ],
      [
        "Ġform",
        "s"
      ],
      [
        "ĠC",
        "ity"
      ],
      [
        "ĠM",
        "ost"
      ],
      [
        "Ġterm",
        "s"
      ],
      [
        "Ġrece",
        "ived"
      ],
      [
        "Ġne",
        "ver"
      ],
      [
        "Ġt",
        "ype"
      ],
      [
        "Ġse",
        "ason"
      ],
      [
        "Ġimp",
        "ro"
      ],
      [
        "ĠArm",
        "y"
      ],
      [
        "Ġp",
        "ress"
      ],
      [
        "Ġad",
        "min"
      ],
      [
        "Ġpr",
        "incip"
      ],
      [
        "in",
        "t"
      ],
      [
        "Ġd",
        "er"
      ],
      [
        "v",
        "iron"
      ],
      [
        "Ġw",
        "on"
      ],
      [
        "Ġthrough",
        "out"
      ],
      [
        "c",
        "ur"
      ],
      [
        "re",
        "g"
      ],
      [
        "at",
        "ors"
      ],
      [
        "Ġc",
        "op"
      ],
      [
        "o",
        "id"
      ],
      [
        "as",
        "k"
      ],
      [
        "Ġsub",
        "st"
      ],
      [
        "et",
        "er"
      ],
      [
        "ĠM",
        "an"
      ],
      [
        "Ġchild",
        "ren"
      ],
      [
        "Ġw",
        "omen"
      ],
      [
        "Ġavail",
        "able"
      ],
      [
        "Ġ19",
        "2"
      ],
      [
        "ad",
        "em"
      ],
      [
        "Ġex",
        "ec"
      ],
      [
        "Ġacc",
        "ount"
      ],
      [
        "is",
        "ing"
      ],
      [
        "Ġmult",
        "ip"
      ],
      [
        "Ġg",
        "e"
      ],
      [
        "ight",
        "s"
      ],
      [
        "ud",
        "e"
      ],
      [
        "Ġcol",
        "on"
      ],
      [
        "h",
        "ib"
      ],
      [
        "ib",
        "r"
      ],
      [
        "Ġman",
        "ag"
      ],
      [
        "Ġeng",
        "ine"
      ],
      [
        "re",
        "me"
      ],
      [
        "Ġse",
        "en"
      ],
      [
        "Ġc",
        "y"
      ],
      [
        "ĠAfric",
        "an"
      ],
      [
        "Ġh",
        "ost"
      ],
      [
        "Ġd",
        "ied"
      ],
      [
        "Ġre",
        "n"
      ],
      [
        "Ġm",
        "aking"
      ],
      [
        "Ġle",
        "ast"
      ],
      [
        "Ġprev",
        "ious"
      ],
      [
        "os",
        "ition"
      ],
      [
        "ac",
        "hed"
      ],
      [
        "Ġl",
        "aun"
      ],
      [
        "o",
        "f"
      ],
      [
        "Ġrese",
        "arch"
      ],
      [
        "v",
        "al"
      ],
      [
        "r",
        "um"
      ],
      [
        "en",
        "ed"
      ],
      [
        "ra",
        "w"
      ],
      [
        "Ġev",
        "idence"
      ],
      [
        "ĠC",
        "or"
      ],
      [
        "Ġcent",
        "ral"
      ],
      [
        "Ġcomple",
        "te"
      ],
      [
        "ut",
        "es"
      ],
      [
        "ad",
        "es"
      ],
      [
        "Ġgro",
        "und"
      ],
      [
        "s",
        "p"
      ],
      [
        "Ġa",
        "ge"
      ],
      [
        "Ġh",
        "alf"
      ],
      [
        "Ġhim",
        "self"
      ],
      [
        "ĠS",
        "w"
      ],
      [
        "Ġl",
        "ower"
      ],
      [
        "Ġanc",
        "ient"
      ],
      [
        "it",
        "u"
      ],
      [
        "ĠS",
        "ince"
      ],
      [
        "Ġarm",
        "y"
      ],
      [
        "Ġfe",
        "ature"
      ],
      [
        "st",
        "and"
      ],
      [
        "Ġsu",
        "per"
      ],
      [
        "ines",
        "e"
      ],
      [
        "ĠS",
        "ov"
      ],
      [
        "ĠAn",
        "t"
      ],
      [
        "Ġph",
        "ilos"
      ],
      [
        "Ġeconom",
        "ic"
      ],
      [
        "Ġth",
        "us"
      ],
      [
        "im",
        "ate"
      ],
      [
        "ist",
        "an"
      ],
      [
        "Ġt",
        "ro"
      ],
      [
        "Ġc",
        "apt"
      ],
      [
        "ri",
        "a"
      ],
      [
        "Ġfor",
        "ce"
      ],
      [
        "ĠP",
        "res"
      ],
      [
        "Ġco",
        "ast"
      ],
      [
        "l",
        "am"
      ],
      [
        "Ġof",
        "fer"
      ],
      [
        "Ġstand",
        "ard"
      ],
      [
        "Ġin",
        "formation"
      ],
      [
        "Ġreg",
        "ard"
      ],
      [
        "ĠAustral",
        "ian"
      ],
      [
        "i",
        "ber"
      ],
      [
        "al",
        "t"
      ],
      [
        "Ġn",
        "et"
      ],
      [
        "ĠN",
        "e"
      ],
      [
        "Ġe",
        "th"
      ],
      [
        "Ġp",
        "ain"
      ],
      [
        "Ġd",
        "ays"
      ],
      [
        "pt",
        "ion"
      ],
      [
        "Ġd",
        "en"
      ],
      [
        "ĠCanad",
        "a"
      ],
      [
        "er",
        "ous"
      ],
      [
        "b",
        "o"
      ],
      [
        "ĠC",
        "ath"
      ],
      [
        "Ġcomm",
        "and"
      ],
      [
        "k",
        "n"
      ],
      [
        "Ġde",
        "b"
      ],
      [
        "ĠI",
        "f"
      ],
      [
        "pl",
        "ay"
      ],
      [
        "a",
        "per"
      ],
      [
        "Ġt",
        "re"
      ],
      [
        "ĠG",
        "reat"
      ],
      [
        "Ġcons",
        "ist"
      ],
      [
        "Ġis",
        "land"
      ],
      [
        "am",
        "a"
      ],
      [
        "ĠC",
        "o"
      ],
      [
        "Ġab",
        "ove"
      ],
      [
        "Ġf",
        "ind"
      ],
      [
        "ĠD",
        "es"
      ],
      [
        "in",
        "ary"
      ],
      [
        "ĠB",
        "ra"
      ],
      [
        "f",
        "ord"
      ],
      [
        "ĠP",
        "ol"
      ],
      [
        "i",
        "que"
      ],
      [
        "ĠS",
        "u"
      ],
      [
        "Ġg",
        "r"
      ],
      [
        "Ġac",
        "ross"
      ],
      [
        "ar",
        "n"
      ],
      [
        "ĠAfric",
        "a"
      ],
      [
        "Ġcon",
        "cept"
      ],
      [
        "Ġme",
        "ans"
      ],
      [
        "Ġh",
        "ard"
      ],
      [
        "ĠS",
        "er"
      ],
      [
        "Ġsc",
        "ient"
      ],
      [
        "c",
        "ript"
      ],
      [
        "Ġpro",
        "ject"
      ],
      [
        "Ġcon",
        "c"
      ],
      [
        "Ġj",
        "oin"
      ],
      [
        "Ġcour",
        "t"
      ],
      [
        "Ġb",
        "all"
      ],
      [
        "Ġprof",
        "ess"
      ],
      [
        "Ġt",
        "aken"
      ],
      [
        "ul",
        "a"
      ],
      [
        "ra",
        "el"
      ],
      [
        "Ġpol",
        "ic"
      ],
      [
        "ĠT",
        "o"
      ],
      [
        "le",
        "ment"
      ],
      [
        "Ġent",
        "ire"
      ],
      [
        "ĠEar",
        "th"
      ],
      [
        "ĠR",
        "iver"
      ],
      [
        "gy",
        "pt"
      ],
      [
        "Ġb",
        "est"
      ],
      [
        "p",
        "ite"
      ],
      [
        "Ġmod",
        "el"
      ],
      [
        "A",
        "S"
      ],
      [
        "Ġf",
        "low"
      ],
      [
        "Ġag",
        "re"
      ],
      [
        "i",
        "ol"
      ],
      [
        "Ġup",
        "on"
      ],
      [
        "ing",
        "u"
      ],
      [
        "Ġt",
        "w"
      ],
      [
        "Ġen",
        "ergy"
      ],
      [
        "Ġdet",
        "erm"
      ],
      [
        "Ġf",
        "ire"
      ],
      [
        "Ġbe",
        "gin"
      ],
      [
        "ĠKing",
        "dom"
      ],
      [
        "Ġre",
        "d"
      ],
      [
        "Ġne",
        "xt"
      ],
      [
        "ĠCom",
        "p"
      ],
      [
        "2",
        "00"
      ],
      [
        "Ġso",
        "ft"
      ],
      [
        "in",
        "ct"
      ],
      [
        "Ġpro",
        "te"
      ],
      [
        "ĠIn",
        "st"
      ],
      [
        "Ġinclud",
        "es"
      ],
      [
        "ne",
        "y"
      ],
      [
        "Ġloc",
        "ated"
      ],
      [
        "Ġpres",
        "ident"
      ],
      [
        "Ġpart",
        "y"
      ],
      [
        "Ġtrad",
        "itional"
      ],
      [
        "Ġmain",
        "tain"
      ],
      [
        "ĠS",
        "y"
      ],
      [
        "Ġacc",
        "ess"
      ],
      [
        "e",
        "f"
      ],
      [
        "l",
        "ant"
      ],
      [
        "b",
        "or"
      ],
      [
        "ĠE",
        "gypt"
      ],
      [
        "ĠH",
        "ouse"
      ],
      [
        "ĠK",
        "h"
      ],
      [
        "Ġplay",
        "er"
      ],
      [
        "Ġind",
        "ic"
      ],
      [
        "Ġmark",
        "et"
      ],
      [
        "is",
        "c"
      ],
      [
        "Ġfollow",
        "ed"
      ],
      [
        "Ġf",
        "inal"
      ],
      [
        "ic",
        "ro"
      ],
      [
        "ĠCon",
        "st"
      ],
      [
        "Ġcult",
        "ure"
      ],
      [
        "Ġcon",
        "n"
      ],
      [
        "Ġno",
        "vel"
      ],
      [
        "Ġse",
        "x"
      ],
      [
        "Ġad",
        "op"
      ],
      [
        "Ġsuccess",
        "ful"
      ],
      [
        "Ġbus",
        "iness"
      ],
      [
        "c",
        "le"
      ],
      [
        "Ġto",
        "tal"
      ],
      [
        "ce",
        "ed"
      ],
      [
        "p",
        "ir"
      ],
      [
        "ĠT",
        "e"
      ],
      [
        "ĠF",
        "rance"
      ],
      [
        "o",
        "ly"
      ],
      [
        "Ġf",
        "ather"
      ],
      [
        "Ġd",
        "i"
      ],
      [
        "Ġch",
        "ange"
      ],
      [
        "s",
        "el"
      ],
      [
        "ĠCh",
        "inese"
      ],
      [
        "Ġrel",
        "ative"
      ],
      [
        "Ġf",
        "ull"
      ],
      [
        "Ġne",
        "g"
      ],
      [
        "Ġinst",
        "ead"
      ],
      [
        "Ġant",
        "i"
      ],
      [
        "ĠR",
        "es"
      ],
      [
        "if",
        "orn"
      ],
      [
        "Ġrel",
        "ated"
      ],
      [
        "in",
        "o"
      ],
      [
        "ĠE",
        "l"
      ],
      [
        "ĠCh",
        "ina"
      ],
      [
        "Ġte",
        "xt"
      ],
      [
        "Ġlit",
        "er"
      ],
      [
        "r",
        "ast"
      ],
      [
        "ĠInd",
        "ia"
      ],
      [
        "f",
        "act"
      ],
      [
        "Ġd",
        "oc"
      ],
      [
        "get",
        "her"
      ],
      [
        "v",
        "ing"
      ],
      [
        "Ġto",
        "gether"
      ],
      [
        "ĠL",
        "atin"
      ],
      [
        "Ġcont",
        "ain"
      ],
      [
        "Ġf",
        "oot"
      ],
      [
        "ĠS",
        "m"
      ],
      [
        "Ġp",
        "erm"
      ],
      [
        "Ġassoci",
        "ated"
      ],
      [
        "ĠSov",
        "iet"
      ],
      [
        "Ġn",
        "orm"
      ],
      [
        "ad",
        "s"
      ],
      [
        "Ġthough",
        "t"
      ],
      [
        "ĠCon",
        "f"
      ],
      [
        "viron",
        "ment"
      ],
      [
        "Ġ",
        "z"
      ],
      [
        "at",
        "ory"
      ],
      [
        "Ġtr",
        "ade"
      ],
      [
        "Ġprov",
        "ide"
      ],
      [
        "Ġs",
        "ound"
      ],
      [
        "Ġm",
        "id"
      ],
      [
        "ĠA",
        "then"
      ],
      [
        "Ġc",
        "ases"
      ],
      [
        "Ġf",
        "oc"
      ],
      [
        "ĠAustral",
        "ia"
      ],
      [
        "Ġhig",
        "her"
      ],
      [
        "Ġm",
        "er"
      ],
      [
        "Ġex",
        "cept"
      ],
      [
        "ĠPh",
        "il"
      ],
      [
        "ĠB",
        "as"
      ],
      [
        "ud",
        "d"
      ],
      [
        "s",
        "y"
      ],
      [
        "Ġinv",
        "est"
      ],
      [
        "eb",
        "ru"
      ],
      [
        "Ġal",
        "most"
      ],
      [
        "ord",
        "er"
      ],
      [
        "Ġim",
        "m"
      ],
      [
        "Ġcommun",
        "ity"
      ],
      [
        "b",
        "ra"
      ],
      [
        "un",
        "ic"
      ],
      [
        "ebru",
        "ary"
      ],
      [
        "Ġse",
        "e"
      ],
      [
        "a",
        "ff"
      ],
      [
        "Ġm",
        "ount"
      ],
      [
        "Ġbec",
        "om"
      ],
      [
        "re",
        "st"
      ],
      [
        "mer",
        "cial"
      ],
      [
        "Ġits",
        "elf"
      ],
      [
        "ograph",
        "y"
      ],
      [
        "a",
        "ction"
      ],
      [
        "Ġc",
        "over"
      ],
      [
        "ĠP",
        "ers"
      ],
      [
        "ĠBrit",
        "ain"
      ],
      [
        "Ġal",
        "tern"
      ],
      [
        "Ġmove",
        "ment"
      ],
      [
        "fic",
        "ult"
      ],
      [
        "Ġm",
        "iss"
      ],
      [
        "ĠC",
        "ouncil"
      ],
      [
        "ĠP",
        "e"
      ],
      [
        "Ġt",
        "ar"
      ],
      [
        "Ġh",
        "yd"
      ],
      [
        "cre",
        "t"
      ],
      [
        "Ġpl",
        "an"
      ],
      [
        "our",
        "s"
      ],
      [
        "tern",
        "al"
      ],
      [
        "ic",
        "a"
      ],
      [
        "li",
        "ament"
      ],
      [
        "ough",
        "t"
      ],
      [
        "n",
        "ot"
      ],
      [
        "Ġo",
        "x"
      ],
      [
        "Ġf",
        "ac"
      ],
      [
        "ic",
        "le"
      ],
      [
        "ĠC",
        "ount"
      ],
      [
        "Ġem",
        "ploy"
      ],
      [
        "Ġelect",
        "ron"
      ],
      [
        "Ġfilm",
        "s"
      ],
      [
        "Ġke",
        "y"
      ],
      [
        "Ġinflu",
        "ence"
      ],
      [
        "Ġf",
        "av"
      ],
      [
        "Ġplay",
        "ers"
      ],
      [
        "Ġacc",
        "ording"
      ],
      [
        "Ġintrodu",
        "ced"
      ],
      [
        "Ġconc",
        "ern"
      ],
      [
        "Ġab",
        "le"
      ],
      [
        "port",
        "s"
      ],
      [
        "Ġdif",
        "ficult"
      ],
      [
        "Ġtem",
        "per"
      ],
      [
        "ĠCent",
        "ral"
      ],
      [
        "Ġparticular",
        "ly"
      ],
      [
        "a",
        "ign"
      ],
      [
        "i",
        "ers"
      ],
      [
        "ĠF",
        "ebruary"
      ],
      [
        "Ġapp",
        "lic"
      ],
      [
        "Ġkn",
        "ow"
      ],
      [
        "ch",
        "ie"
      ],
      [
        "Ġrefer",
        "red"
      ],
      [
        "m",
        "a"
      ],
      [
        "Ġfe",
        "atures"
      ],
      [
        "Ġreport",
        "ed"
      ],
      [
        "Ġp",
        "oin"
      ],
      [
        "Ġpro",
        "b"
      ],
      [
        "Ġtyp",
        "ically"
      ],
      [
        "ro",
        "y"
      ],
      [
        "Ġsur",
        "v"
      ],
      [
        "Ġright",
        "s"
      ],
      [
        "Ġt",
        "rib"
      ],
      [
        "am",
        "ples"
      ],
      [
        "Ġtele",
        "vision"
      ],
      [
        "he",
        "st"
      ],
      [
        "ant",
        "ed"
      ],
      [
        "Ġval",
        "ue"
      ],
      [
        "il",
        "es"
      ],
      [
        "Ġallow",
        "ed"
      ],
      [
        "Ġbuild",
        "ing"
      ],
      [
        "ĠCal",
        "iforn"
      ],
      [
        "at",
        "ives"
      ],
      [
        "Ġl",
        "ack"
      ],
      [
        "our",
        "t"
      ],
      [
        "oun",
        "ter"
      ],
      [
        "y",
        "r"
      ],
      [
        "ot",
        "ed"
      ],
      [
        "Ġresp",
        "ons"
      ],
      [
        "Ġst",
        "ri"
      ],
      [
        "Ġtrad",
        "ition"
      ],
      [
        "ĠSt",
        "ate"
      ],
      [
        "Ġdef",
        "e"
      ],
      [
        "us",
        "h"
      ],
      [
        "oc",
        "r"
      ],
      [
        "Ġtra",
        "vel"
      ],
      [
        "Ġc",
        "ross"
      ],
      [
        "Ġf",
        "ar"
      ],
      [
        "Ġcomp",
        "an"
      ],
      [
        "Ġsur",
        "face"
      ],
      [
        "med",
        "i"
      ],
      [
        "Ġst",
        "ory"
      ],
      [
        "Ġwh",
        "ose"
      ],
      [
        "c",
        "ast"
      ],
      [
        "at",
        "t"
      ],
      [
        "Ġf",
        "ri"
      ],
      [
        "ide",
        "o"
      ],
      [
        "Ġcontin",
        "u"
      ],
      [
        "Ġb",
        "r"
      ],
      [
        "ĠC",
        "amb"
      ],
      [
        "Ġcre",
        "w"
      ],
      [
        "Ġf",
        "all"
      ],
      [
        "ib",
        "ility"
      ],
      [
        "Ġstruct",
        "ure"
      ],
      [
        "Ġcont",
        "rib"
      ],
      [
        "Ġf",
        "und"
      ],
      [
        "Ġon",
        "ce"
      ],
      [
        "Ġst",
        "e"
      ],
      [
        "Ġde",
        "g"
      ],
      [
        "Ġspec",
        "ific"
      ],
      [
        "Ġrequ",
        "ired"
      ],
      [
        "Ġword",
        "s"
      ],
      [
        "ĠInd",
        "ian"
      ],
      [
        "im",
        "ately"
      ],
      [
        "ĠCath",
        "olic"
      ],
      [
        "re",
        "am"
      ],
      [
        "Ġres",
        "pect"
      ],
      [
        "ĠGerm",
        "any"
      ],
      [
        "Ġsch",
        "ol"
      ],
      [
        "b",
        "orn"
      ],
      [
        "u",
        "el"
      ],
      [
        "or",
        "al"
      ],
      [
        "t",
        "ies"
      ],
      [
        "iver",
        "se"
      ],
      [
        "Ġs",
        "ize"
      ],
      [
        "it",
        "ing"
      ],
      [
        "ut",
        "h"
      ],
      [
        "ar",
        "a"
      ],
      [
        "ĠAr",
        "ch"
      ],
      [
        "Ġbook",
        "s"
      ],
      [
        "Ġrelig",
        "ious"
      ],
      [
        "ĠC",
        "ong"
      ],
      [
        "ĠF",
        "rom"
      ],
      [
        "Ġserv",
        "ices"
      ],
      [
        "ĠCol",
        "le"
      ],
      [
        "cl",
        "us"
      ],
      [
        "Ġm",
        "ight"
      ],
      [
        "Ġ19",
        "0"
      ],
      [
        "ys",
        "is"
      ],
      [
        "ĠCaliforn",
        "ia"
      ],
      [
        "Ġserv",
        "ed"
      ],
      [
        "rough",
        "t"
      ],
      [
        "Ġadmin",
        "ist"
      ],
      [
        "ĠP",
        "ark"
      ],
      [
        "Ġsc",
        "ience"
      ],
      [
        "Ġ(",
        "\""
      ],
      [
        "ĠT",
        "ur"
      ],
      [
        "an",
        "ish"
      ],
      [
        "ĠM",
        "e"
      ],
      [
        "I",
        "I"
      ],
      [
        "Ġst",
        "ar"
      ],
      [
        "ĠLe",
        "ague"
      ],
      [
        "Ġint",
        "eg"
      ],
      [
        "ist",
        "ry"
      ],
      [
        "Ġm",
        "ach"
      ],
      [
        "Ġremain",
        "ed"
      ],
      [
        "ol",
        "l"
      ],
      [
        "Ġus",
        "es"
      ],
      [
        "Ġdis",
        "p"
      ],
      [
        "ed",
        "eral"
      ],
      [
        "um",
        "e"
      ],
      [
        "uc",
        "k"
      ],
      [
        "5",
        "0"
      ],
      [
        "ĠC",
        "ro"
      ],
      [
        "Ġ200",
        "7"
      ],
      [
        "Ġcommon",
        "ly"
      ],
      [
        "ĠW",
        "e"
      ],
      [
        "ix",
        "ed"
      ],
      [
        "ly",
        "ing"
      ],
      [
        "Ġtyp",
        "es"
      ],
      [
        "ĠP",
        "er"
      ],
      [
        "Ġ18",
        "6"
      ],
      [
        "Ġl",
        "o"
      ],
      [
        "ĠM",
        "c"
      ],
      [
        "Ġme",
        "et"
      ],
      [
        "Ġbelie",
        "ved"
      ],
      [
        "ul",
        "f"
      ],
      [
        "Ġf",
        "ig"
      ],
      [
        "Ġh",
        "ouse"
      ],
      [
        "os",
        "es"
      ],
      [
        "Ġindust",
        "ry"
      ],
      [
        "Ġpre",
        "vent"
      ],
      [
        "Ġev",
        "ents"
      ],
      [
        "Ġcommun",
        "ic"
      ],
      [
        "Ġg",
        "re"
      ],
      [
        "Ġ199",
        "0"
      ],
      [
        "Ġmean",
        "ing"
      ],
      [
        "Ġst",
        "yle"
      ],
      [
        "Ġprov",
        "ided"
      ],
      [
        "ĠAt",
        "lant"
      ],
      [
        "it",
        "ch"
      ],
      [
        "ol",
        "s"
      ],
      [
        "ap",
        "s"
      ],
      [
        "Ġv",
        "ict"
      ],
      [
        "Ġme",
        "chan"
      ],
      [
        "em",
        "s"
      ],
      [
        "ĠSe",
        "a"
      ],
      [
        "Ġ",
        "ill"
      ],
      [
        "ing",
        "ton"
      ],
      [
        "ri",
        "al"
      ],
      [
        "ĠE",
        "m"
      ],
      [
        "Ġj",
        "ud"
      ],
      [
        "Ġann",
        "ounced"
      ],
      [
        "Ġwh",
        "ite"
      ],
      [
        "Ġincre",
        "asing"
      ],
      [
        "it",
        "ect"
      ],
      [
        "Ġp",
        "en"
      ],
      [
        "Ġn",
        "uc"
      ],
      [
        "Ġcom",
        "mercial"
      ],
      [
        "Ġele",
        "ment"
      ],
      [
        "Ġto",
        "ur"
      ],
      [
        "Ġlar",
        "ger"
      ],
      [
        "Ġe",
        "mer"
      ],
      [
        "Ġbeh",
        "av"
      ],
      [
        "ĠR",
        "ober"
      ],
      [
        "eng",
        "th"
      ],
      [
        "ur",
        "ies"
      ],
      [
        "Ġc",
        "ause"
      ],
      [
        "ĠS",
        "an"
      ],
      [
        "ĠChar",
        "les"
      ],
      [
        "ĠRe",
        "g"
      ],
      [
        "Ġkill",
        "ed"
      ],
      [
        "Ġn",
        "orthern"
      ],
      [
        "Ġs",
        "ite"
      ],
      [
        "Ġne",
        "cess"
      ],
      [
        "i",
        "res"
      ],
      [
        "ul",
        "ated"
      ],
      [
        "Ġr",
        "ule"
      ],
      [
        "Ġeffect",
        "s"
      ],
      [
        "ĠSch",
        "ool"
      ],
      [
        "Ġmov",
        "ed"
      ],
      [
        "Ġm",
        "ission"
      ],
      [
        "Ġinter",
        "p"
      ],
      [
        "Ġcamp",
        "aign"
      ],
      [
        "ĠP",
        "al"
      ],
      [
        "ĠP",
        "ort"
      ],
      [
        "Ġdef",
        "in"
      ],
      [
        "wo",
        "od"
      ],
      [
        "Ġro",
        "ck"
      ],
      [
        "Ġqu",
        "est"
      ],
      [
        "l",
        "im"
      ],
      [
        "Ġwhe",
        "ther"
      ],
      [
        "Ġ200",
        "6"
      ],
      [
        "Ġpr",
        "in"
      ],
      [
        "Ġ2",
        "1"
      ],
      [
        "s",
        "u"
      ],
      [
        "Ġl",
        "ost"
      ],
      [
        "19",
        "9"
      ],
      [
        "Ġsour",
        "ce"
      ],
      [
        "Ġd",
        "ou"
      ],
      [
        "id",
        "ing"
      ],
      [
        "Ġor",
        "d"
      ],
      [
        "Ġdesign",
        "ed"
      ],
      [
        "Ġcrit",
        "ic"
      ],
      [
        "ir",
        "th"
      ],
      [
        "g",
        "o"
      ],
      [
        "Ġtrans",
        "port"
      ],
      [
        "Ġwide",
        "ly"
      ],
      [
        "Ġg",
        "od"
      ],
      [
        "om",
        "m"
      ],
      [
        "Ġ3",
        "0"
      ],
      [
        "ers",
        "hip"
      ],
      [
        "Ġconsid",
        "er"
      ],
      [
        "Ġa",
        "ud"
      ],
      [
        "or",
        "ph"
      ],
      [
        "Ġp",
        "ut"
      ],
      [
        "Ġd",
        "omin"
      ],
      [
        "o",
        "ff"
      ],
      [
        "ĠGeor",
        "ge"
      ],
      [
        "Ġp",
        "ast"
      ],
      [
        "ist",
        "ance"
      ],
      [
        "Ġg",
        "ave"
      ],
      [
        "ĠJ",
        "ames"
      ],
      [
        "Ġ201",
        "0"
      ],
      [
        "one",
        "y"
      ],
      [
        "Ġ198",
        "0"
      ],
      [
        "oph",
        "y"
      ],
      [
        "Ġl",
        "og"
      ],
      [
        "Ġlong",
        "er"
      ],
      [
        "Ġa",
        "chie"
      ],
      [
        "Ġan",
        "g"
      ],
      [
        "Ġleg",
        "al"
      ],
      [
        "our",
        "n"
      ],
      [
        "Ġout",
        "side"
      ],
      [
        "Ġlit",
        "tle"
      ],
      [
        "b",
        "ased"
      ],
      [
        "fer",
        "ence"
      ],
      [
        "he",
        "t"
      ],
      [
        "Ġn",
        "ature"
      ],
      [
        "Ġ200",
        "0"
      ],
      [
        "Ġl",
        "ive"
      ],
      [
        "Ġch",
        "urch"
      ],
      [
        "Ġpre",
        "d"
      ],
      [
        "Ġprodu",
        "ce"
      ],
      [
        "Ġpriv",
        "ate"
      ],
      [
        "Ġcaus",
        "ed"
      ],
      [
        "Ġpur",
        "p"
      ],
      [
        "ĠPart",
        "y"
      ],
      [
        "sel",
        "ves"
      ],
      [
        "Ġm",
        "other"
      ],
      [
        "Ġra",
        "il"
      ],
      [
        "Ġincre",
        "ased"
      ],
      [
        "Ġstart",
        "ed"
      ],
      [
        "an",
        "ks"
      ],
      [
        "Ġf",
        "em"
      ],
      [
        "Ġtar",
        "get"
      ],
      [
        "Ġw",
        "ent"
      ],
      [
        "ĠC",
        "ourt"
      ],
      [
        "Ġsu",
        "ff"
      ],
      [
        "Ġ200",
        "8"
      ],
      [
        "ran",
        "ch"
      ],
      [
        "Ġdist",
        "rib"
      ],
      [
        "Ġ197",
        "0"
      ],
      [
        "Ġsym",
        "b"
      ],
      [
        "il",
        "ities"
      ],
      [
        "ĠTh",
        "om"
      ],
      [
        "Ġcar",
        "bon"
      ],
      [
        "Ġb",
        "rought"
      ],
      [
        "ent",
        "al"
      ],
      [
        "Ġ201",
        "1"
      ],
      [
        "Ġs",
        "qu"
      ],
      [
        "Ġbl",
        "ood"
      ],
      [
        "Ġhe",
        "alth"
      ],
      [
        "ĠN",
        "o"
      ],
      [
        "Ġevent",
        "ually"
      ],
      [
        "ĠU",
        "K"
      ],
      [
        "Ġast",
        "ron"
      ],
      [
        "Ġa",
        "way"
      ],
      [
        "Ġ200",
        "9"
      ],
      [
        "ibr",
        "ary"
      ],
      [
        "Ġen",
        "vironment"
      ],
      [
        "Ġre",
        "b"
      ],
      [
        "ĠPres",
        "ident"
      ],
      [
        "Ġ",
        "["
      ],
      [
        "Ġremain",
        "s"
      ],
      [
        "v",
        "iew"
      ],
      [
        "Ġcond",
        "itions"
      ],
      [
        "Ġv",
        "iol"
      ],
      [
        "ĠCon",
        "t"
      ],
      [
        "Ġwrit",
        "ing"
      ],
      [
        "Ġlead",
        "ing"
      ],
      [
        "Ġlike",
        "ly"
      ],
      [
        "Ġs",
        "at"
      ],
      [
        "ĠGen",
        "eral"
      ],
      [
        "it",
        "ute"
      ],
      [
        "Ġg",
        "ra"
      ],
      [
        "ach",
        "ing"
      ],
      [
        "anes",
        "e"
      ],
      [
        "Ġd",
        "ial"
      ],
      [
        "Ġappe",
        "ared"
      ],
      [
        "\"",
        ")"
      ],
      [
        "Ġmat",
        "hem"
      ],
      [
        "Ġindepend",
        "ent"
      ],
      [
        "Ġeduc",
        "ation"
      ],
      [
        "Ġf",
        "le"
      ],
      [
        "ĠD",
        "em"
      ],
      [
        "ill",
        "s"
      ],
      [
        "ele",
        "b"
      ],
      [
        "an",
        "ced"
      ],
      [
        "Ġrelations",
        "hip"
      ],
      [
        "Ġc",
        "ities"
      ],
      [
        "l",
        "ight"
      ],
      [
        "Ġchang",
        "es"
      ],
      [
        "o",
        "ice"
      ],
      [
        "ĠAs",
        "ia"
      ],
      [
        "Ġadd",
        "ed"
      ],
      [
        "re",
        "et"
      ],
      [
        "Ġele",
        "ction"
      ],
      [
        "Ġrad",
        "io"
      ],
      [
        "o",
        "res"
      ],
      [
        "Ġc",
        "ode"
      ],
      [
        "Ġreturn",
        "ed"
      ],
      [
        "ĠSt",
        "e"
      ],
      [
        "Ġeff",
        "ort"
      ],
      [
        "Ġrequ",
        "ire"
      ],
      [
        "Ġrepl",
        "aced"
      ],
      [
        "Ġhyd",
        "ro"
      ],
      [
        "ot",
        "ic"
      ],
      [
        "Ġse",
        "a"
      ],
      [
        "r",
        "ate"
      ],
      [
        "Ġcol",
        "l"
      ],
      [
        "it",
        "iz"
      ],
      [
        "ĠG",
        "overn"
      ],
      [
        "Ġreg",
        "ions"
      ],
      [
        "Ġproble",
        "ms"
      ],
      [
        "h",
        "ing"
      ],
      [
        "Ġc",
        "lear"
      ],
      [
        "Ġe",
        "t"
      ],
      [
        "Ġthem",
        "selves"
      ],
      [
        "Ġproble",
        "m"
      ],
      [
        "Ġsoft",
        "ware"
      ],
      [
        "Ġs",
        "outhern"
      ],
      [
        "u",
        "fact"
      ],
      [
        "am",
        "er"
      ],
      [
        "ĠH",
        "igh"
      ],
      [
        "Ġphys",
        "ical"
      ],
      [
        "Ġv",
        "ir"
      ],
      [
        "Ġ196",
        "0"
      ],
      [
        "Ġanim",
        "als"
      ],
      [
        "Ġs",
        "elf"
      ],
      [
        "Ġw",
        "est"
      ],
      [
        "Ġac",
        "id"
      ],
      [
        "Ġpartic",
        "ip"
      ],
      [
        "Ġe",
        "as"
      ],
      [
        "Ġcon",
        "ver"
      ],
      [
        "ric",
        "ult"
      ],
      [
        "Ġ18",
        "9"
      ],
      [
        "Ġa",
        "ction"
      ],
      [
        "ĠR",
        "oyal"
      ],
      [
        "Ġman",
        "ufact"
      ],
      [
        "et",
        "t"
      ],
      [
        "ir",
        "it"
      ],
      [
        "Ġcompan",
        "ies"
      ],
      [
        "Ġc",
        "ost"
      ],
      [
        "ut",
        "ure"
      ],
      [
        "Ġcon",
        "du"
      ],
      [
        "pp",
        "er"
      ],
      [
        "act",
        "ers"
      ],
      [
        "Ġvari",
        "ety"
      ],
      [
        "Ġe",
        "ast"
      ],
      [
        "Ġdef",
        "ined"
      ],
      [
        "as",
        "ion"
      ],
      [
        "Ġre",
        "ason"
      ],
      [
        "ĠA",
        "D"
      ],
      [
        "Ġpract",
        "ice"
      ],
      [
        "ĠB",
        "ay"
      ],
      [
        "if",
        "f"
      ],
      [
        "Ġqu",
        "ant"
      ],
      [
        "Ġrecord",
        "ed"
      ],
      [
        "Ġt",
        "en"
      ],
      [
        "ow",
        "s"
      ],
      [
        "qu",
        "es"
      ],
      [
        "Ġmon",
        "ths"
      ],
      [
        "Ġlim",
        "ited"
      ],
      [
        "Ġd",
[...]
